[PAD]
[UNK]
[CLS]
[SEP]
[MASK]
[unused1]
[unused2]
[unused3]
[unused4]
[unused5]
[unused6]
[unused7]
[unused8]
[unused9]
[unused10]
[unused11]
[unused12]
[unused13]
[unused14]
[unused15]
[unused16]
[unused17]
[unused18]
[unused19]
[unused20]
[unused21]
[unused22]
[unused23]
[unused24]
[unused25]
[unused26]
[unused27]
[unused28]
[unused29]
[unused30]
[unused31]
[unused32]
[unused33]
[unused34]
[unused35]
[unused36]
[unused37]
[unused38]
[unused39]
[unused40]
[unused41]
[unused42]
[unused43]
[unused44]
[unused45]
[unused46]
[unused47]
[unused48]
[unused49]
[unused50]
[unused51]
[unused52]
[unused53]
[unused54]
[unused55]
[unused56]
[unused57]
[unused58]
[unused59]
[unused60]
[unused61]
[unused62]
[unused63]
[unused64]
[unused65]
[unused66]
[unused67]
[unused68]
[unused69]
[unused70]
[unused71]
[unused72]
[unused73]
[unused74]
[unused75]
[unused76]
[unused77]
[unused78]
[unused79]
[unused80]
[unused81]
[unused82]
[unused83]
[unused84]
[unused85]
[unused86]
[unused87]
[unused88]
[unused89]
[unused90]
[unused91]
[unused92]
[unused93]
[unused94]
[unused95]
[unused96]
[unused97]
[unused98]
[unused99]
[unused100]
[unused101]
[unused102]
[unused103]
[unused104]
[unused105]
[unused106]
[unused107]
[unused108]
[unused109]
[unused110]
[unused111]
[unused112]
[unused113]
[unused114]
[unused115]
[unused116]
[unused117]
[unused118]
[unused119]
[unused120]
[unused121]
[unused122]
[unused123]
[unused124]
[unused125]
[unused126]
[unused127]
[unused128]
[unused129]
[unused130]
[unused131]
[unused132]
[unused133]
[unused134]
[unused135]
[unused136]
[unused137]
[unused138]
[unused139]
[unused140]
[unused141]
[unused142]
[unused143]
[unused144]
[unused145]
[unused146]
[unused147]
[unused148]
[unused149]
[unused150]
[unused151]
[unused152]
[unused153]
[unused154]
[unused155]
[unused156]
[unused157]
[unused158]
[unused159]
[unused160]
[unused161]
[unused162]
[unused163]
[unused164]
[unused165]
[unused166]
[unused167]
[unused168]
[unused169]
[unused170]
[unused171]
[unused172]
[unused173]
[unused174]
[unused175]
[unused176]
[unused177]
[unused178]
[unused179]
[unused180]
[unused181]
[unused182]
[unused183]
[unused184]
[unused185]
[unused186]
[unused187]
[unused188]
[unused189]
[unused190]
[unused191]
[unused192]
[unused193]
[unused194]
[unused195]
[unused196]
[unused197]
[unused198]
[unused199]
[unused200]
[unused201]
[unused202]
[unused203]
[unused204]
[unused205]
[unused206]
[unused207]
[unused208]
[unused209]
[unused210]
[unused211]
[unused212]
[unused213]
[unused214]
[unused215]
[unused216]
[unused217]
[unused218]
[unused219]
[unused220]
[unused221]
[unused222]
[unused223]
[unused224]
[unused225]
[unused226]
[unused227]
[unused228]
[unused229]
[unused230]
[unused231]
[unused232]
[unused233]
[unused234]
[unused235]
[unused236]
[unused237]
[unused238]
[unused239]
[unused240]
[unused241]
[unused242]
[unused243]
[unused244]
[unused245]
[unused246]
[unused247]
[unused248]
[unused249]
[unused250]
[unused251]
[unused252]
[unused253]
[unused254]
[unused255]
[unused256]
[unused257]
[unused258]
[unused259]
[unused260]
[unused261]
[unused262]
[unused263]
[unused264]
[unused265]
[unused266]
[unused267]
[unused268]
[unused269]
[unused270]
[unused271]
[unused272]
[unused273]
[unused274]
[unused275]
[unused276]
[unused277]
[unused278]
[unused279]
[unused280]
[unused281]
[unused282]
[unused283]
[unused284]
[unused285]
[unused286]
[unused287]
[unused288]
[unused289]
[unused290]
[unused291]
[unused292]
[unused293]
[unused294]
[unused295]
[unused296]
[unused297]
[unused298]
[unused299]
[unused300]
[unused301]
[unused302]
[unused303]
[unused304]
[unused305]
[unused306]
[unused307]
[unused308]
[unused309]
[unused310]
[unused311]
[unused312]
[unused313]
[unused314]
[unused315]
[unused316]
[unused317]
[unused318]
[unused319]
[unused320]
[unused321]
[unused322]
[unused323]
[unused324]
[unused325]
[unused326]
[unused327]
[unused328]
[unused329]
[unused330]
[unused331]
[unused332]
[unused333]
[unused334]
[unused335]
[unused336]
[unused337]
[unused338]
[unused339]
[unused340]
[unused341]
[unused342]
[unused343]
[unused344]
[unused345]
[unused346]
[unused347]
[unused348]
[unused349]
[unused350]
[unused351]
[unused352]
[unused353]
[unused354]
[unused355]
[unused356]
[unused357]
[unused358]
[unused359]
[unused360]
[unused361]
[unused362]
[unused363]
[unused364]
[unused365]
[unused366]
[unused367]
[unused368]
[unused369]
[unused370]
[unused371]
[unused372]
[unused373]
[unused374]
[unused375]
[unused376]
[unused377]
[unused378]
[unused379]
[unused380]
[unused381]
[unused382]
[unused383]
[unused384]
[unused385]
[unused386]
[unused387]
[unused388]
[unused389]
[unused390]
[unused391]
[unused392]
[unused393]
[unused394]
[unused395]
[unused396]
[unused397]
[unused398]
[unused399]
[unused400]
[unused401]
[unused402]
[unused403]
[unused404]
[unused405]
[unused406]
[unused407]
[unused408]
[unused409]
[unused410]
[unused411]
[unused412]
[unused413]
[unused414]
[unused415]
[unused416]
[unused417]
[unused418]
[unused419]
[unused420]
[unused421]
[unused422]
[unused423]
[unused424]
[unused425]
[unused426]
[unused427]
[unused428]
[unused429]
[unused430]
[unused431]
[unused432]
[unused433]
[unused434]
[unused435]
[unused436]
[unused437]
[unused438]
[unused439]
[unused440]
[unused441]
[unused442]
[unused443]
[unused444]
[unused445]
[unused446]
[unused447]
[unused448]
[unused449]
[unused450]
[unused451]
[unused452]
[unused453]
[unused454]
[unused455]
[unused456]
[unused457]
[unused458]
[unused459]
[unused460]
[unused461]
[unused462]
[unused463]
[unused464]
[unused465]
[unused466]
[unused467]
[unused468]
[unused469]
[unused470]
[unused471]
[unused472]
[unused473]
[unused474]
[unused475]
[unused476]
[unused477]
[unused478]
[unused479]
[unused480]
[unused481]
[unused482]
[unused483]
[unused484]
[unused485]
[unused486]
[unused487]
[unused488]
[unused489]
[unused490]
[unused491]
[unused492]
[unused493]
[unused494]
[unused495]
[unused496]
[unused497]
[unused498]
[unused499]
[unused500]
[unused501]
[unused502]
[unused503]
[unused504]
[unused505]
[unused506]
[unused507]
[unused508]
[unused509]
[unused510]
[unused511]
[unused512]
[unused513]
[unused514]
[unused515]
[unused516]
[unused517]
[unused518]
[unused519]
[unused520]
[unused521]
[unused522]
[unused523]
[unused524]
[unused525]
[unused526]
[unused527]
[unused528]
[unused529]
[unused530]
[unused531]
[unused532]
[unused533]
[unused534]
[unused535]
[unused536]
[unused537]
[unused538]
[unused539]
[unused540]
[unused541]
[unused542]
[unused543]
[unused544]
[unused545]
[unused546]
[unused547]
[unused548]
[unused549]
[unused550]
[unused551]
[unused552]
[unused553]
[unused554]
[unused555]
[unused556]
[unused557]
[unused558]
[unused559]
[unused560]
[unused561]
[unused562]
[unused563]
[unused564]
[unused565]
[unused566]
[unused567]
[unused568]
[unused569]
[unused570]
[unused571]
[unused572]
[unused573]
[unused574]
[unused575]
[unused576]
[unused577]
[unused578]
[unused579]
[unused580]
[unused581]
[unused582]
[unused583]
[unused584]
[unused585]
[unused586]
[unused587]
[unused588]
[unused589]
[unused590]
[unused591]
[unused592]
[unused593]
[unused594]
[unused595]
[unused596]
[unused597]
[unused598]
[unused599]
[unused600]
[unused601]
[unused602]
[unused603]
[unused604]
[unused605]
[unused606]
[unused607]
[unused608]
[unused609]
[unused610]
[unused611]
[unused612]
[unused613]
[unused614]
[unused615]
[unused616]
[unused617]
[unused618]
[unused619]
[unused620]
[unused621]
[unused622]
[unused623]
[unused624]
[unused625]
[unused626]
[unused627]
[unused628]
[unused629]
[unused630]
[unused631]
[unused632]
[unused633]
[unused634]
[unused635]
[unused636]
[unused637]
[unused638]
[unused639]
[unused640]
[unused641]
[unused642]
[unused643]
[unused644]
[unused645]
[unused646]
[unused647]
[unused648]
[unused649]
[unused650]
[unused651]
[unused652]
[unused653]
[unused654]
[unused655]
[unused656]
[unused657]
[unused658]
[unused659]
[unused660]
[unused661]
[unused662]
[unused663]
[unused664]
[unused665]
[unused666]
[unused667]
[unused668]
[unused669]
[unused670]
[unused671]
[unused672]
[unused673]
[unused674]
[unused675]
[unused676]
[unused677]
[unused678]
[unused679]
[unused680]
[unused681]
[unused682]
[unused683]
[unused684]
[unused685]
[unused686]
[unused687]
[unused688]
[unused689]
[unused690]
[unused691]
[unused692]
[unused693]
[unused694]
[unused695]
[unused696]
[unused697]
[unused698]
[unused699]
[unused700]
[unused701]
[unused702]
[unused703]
[unused704]
[unused705]
[unused706]
[unused707]
[unused708]
[unused709]
[unused710]
[unused711]
[unused712]
[unused713]
[unused714]
[unused715]
[unused716]
[unused717]
[unused718]
[unused719]
[unused720]
[unused721]
[unused722]
[unused723]
[unused724]
[unused725]
[unused726]
[unused727]
[unused728]
[unused729]
[unused730]
[unused731]
[unused732]
[unused733]
[unused734]
[unused735]
[unused736]
[unused737]
[unused738]
[unused739]
[unused740]
[unused741]
[unused742]
[unused743]
[unused744]
[unused745]
[unused746]
[unused747]
[unused748]
[unused749]
[unused750]
[unused751]
[unused752]
[unused753]
[unused754]
[unused755]
[unused756]
[unused757]
[unused758]
[unused759]
[unused760]
[unused761]
[unused762]
[unused763]
[unused764]
[unused765]
[unused766]
[unused767]
[unused768]
[unused769]
[unused770]
[unused771]
[unused772]
[unused773]
[unused774]
[unused775]
[unused776]
[unused777]
[unused778]
[unused779]
[unused780]
[unused781]
[unused782]
[unused783]
[unused784]
[unused785]
[unused786]
[unused787]
[unused788]
[unused789]
[unused790]
[unused791]
[unused792]
[unused793]
[unused794]
[unused795]
[unused796]
[unused797]
[unused798]
[unused799]
[unused800]
[unused801]
[unused802]
[unused803]
[unused804]
[unused805]
[unused806]
[unused807]
[unused808]
[unused809]
[unused810]
[unused811]
[unused812]
[unused813]
[unused814]
[unused815]
[unused816]
[unused817]
[unused818]
[unused819]
[unused820]
[unused821]
[unused822]
[unused823]
[unused824]
[unused825]
[unused826]
[unused827]
[unused828]
[unused829]
[unused830]
[unused831]
[unused832]
[unused833]
[unused834]
[unused835]
[unused836]
[unused837]
[unused838]
[unused839]
[unused840]
[unused841]
[unused842]
[unused843]
[unused844]
[unused845]
[unused846]
[unused847]
[unused848]
[unused849]
[unused850]
[unused851]
[unused852]
[unused853]
[unused854]
[unused855]
[unused856]
[unused857]
[unused858]
[unused859]
[unused860]
[unused861]
[unused862]
[unused863]
[unused864]
[unused865]
[unused866]
[unused867]
[unused868]
[unused869]
[unused870]
[unused871]
[unused872]
[unused873]
[unused874]
[unused875]
[unused876]
[unused877]
[unused878]
[unused879]
[unused880]
[unused881]
[unused882]
[unused883]
[unused884]
[unused885]
[unused886]
[unused887]
[unused888]
[unused889]
[unused890]
[unused891]
[unused892]
[unused893]
[unused894]
[unused895]
[unused896]
[unused897]
[unused898]
[unused899]
[unused900]
[unused901]
[unused902]
[unused903]
[unused904]
[unused905]
[unused906]
[unused907]
[unused908]
[unused909]
[unused910]
[unused911]
[unused912]
[unused913]
[unused914]
[unused915]
[unused916]
[unused917]
[unused918]
[unused919]
[unused920]
[unused921]
[unused922]
[unused923]
[unused924]
[unused925]
[unused926]
[unused927]
[unused928]
[unused929]
[unused930]
[unused931]
[unused932]
[unused933]
[unused934]
[unused935]
[unused936]
[unused937]
[unused938]
[unused939]
[unused940]
[unused941]
[unused942]
[unused943]
[unused944]
[unused945]
[unused946]
[unused947]
[unused948]
[unused949]
[unused950]
[unused951]
[unused952]
[unused953]
[unused954]
[unused955]
[unused956]
[unused957]
[unused958]
[unused959]
[unused960]
[unused961]
[unused962]
[unused963]
[unused964]
[unused965]
[unused966]
[unused967]
[unused968]
[unused969]
[unused970]
[unused971]
[unused972]
[unused973]
[unused974]
[unused975]
[unused976]
[unused977]
[unused978]
[unused979]
[unused980]
[unused981]
[unused982]
[unused983]
[unused984]
[unused985]
[unused986]
[unused987]
[unused988]
[unused989]
[unused990]
[unused991]
[unused992]
[unused993]
[unused994]
[unused995]
[unused996]
[unused997]
[unused998]
[unused999]
[unused1000]
[unused1001]
[unused1002]
[unused1003]
[unused1004]
[unused1005]
[unused1006]
[unused1007]
[unused1008]
[unused1009]
[unused1010]
[unused1011]
[unused1012]
[unused1013]
[unused1014]
[unused1015]
[unused1016]
[unused1017]
[unused1018]
[unused1019]
[unused1020]
[unused1021]
[unused1022]
[unused1023]
[unused1024]
[unused1025]
[unused1026]
[unused1027]
[unused1028]
[unused1029]
[unused1030]
[unused1031]
[unused1032]
[unused1033]
[unused1034]
[unused1035]
[unused1036]
[unused1037]
[unused1038]
[unused1039]
[unused1040]
[unused1041]
[unused1042]
[unused1043]
[unused1044]
[unused1045]
[unused1046]
[unused1047]
[unused1048]
[unused1049]
[unused1050]
[unused1051]
[unused1052]
[unused1053]
[unused1054]
[unused1055]
[unused1056]
[unused1057]
[unused1058]
[unused1059]
[unused1060]
[unused1061]
[unused1062]
[unused1063]
[unused1064]
[unused1065]
[unused1066]
[unused1067]
[unused1068]
[unused1069]
[unused1070]
[unused1071]
[unused1072]
[unused1073]
[unused1074]
[unused1075]
[unused1076]
[unused1077]
[unused1078]
[unused1079]
[unused1080]
[unused1081]
[unused1082]
[unused1083]
[unused1084]
[unused1085]
[unused1086]
[unused1087]
[unused1088]
[unused1089]
[unused1090]
[unused1091]
[unused1092]
[unused1093]
[unused1094]
[unused1095]
[unused1096]
[unused1097]
[unused1098]
[unused1099]
[unused1100]
[unused1101]
[unused1102]
[unused1103]
[unused1104]
[unused1105]
[unused1106]
[unused1107]
[unused1108]
[unused1109]
[unused1110]
[unused1111]
[unused1112]
[unused1113]
[unused1114]
[unused1115]
[unused1116]
[unused1117]
[unused1118]
[unused1119]
[unused1120]
[unused1121]
[unused1122]
[unused1123]
[unused1124]
[unused1125]
[unused1126]
[unused1127]
[unused1128]
[unused1129]
[unused1130]
[unused1131]
[unused1132]
[unused1133]
[unused1134]
[unused1135]
[unused1136]
[unused1137]
[unused1138]
[unused1139]
[unused1140]
[unused1141]
[unused1142]
[unused1143]
[unused1144]
[unused1145]
[unused1146]
[unused1147]
[unused1148]
[unused1149]
[unused1150]
[unused1151]
[unused1152]
[unused1153]
[unused1154]
[unused1155]
[unused1156]
[unused1157]
[unused1158]
[unused1159]
[unused1160]
[unused1161]
[unused1162]
[unused1163]
[unused1164]
[unused1165]
[unused1166]
[unused1167]
[unused1168]
[unused1169]
[unused1170]
[unused1171]
[unused1172]
[unused1173]
[unused1174]
[unused1175]
[unused1176]
[unused1177]
[unused1178]
[unused1179]
[unused1180]
[unused1181]
[unused1182]
[unused1183]
[unused1184]
[unused1185]
[unused1186]
[unused1187]
[unused1188]
[unused1189]
[unused1190]
[unused1191]
[unused1192]
[unused1193]
[unused1194]
[unused1195]
[unused1196]
[unused1197]
[unused1198]
[unused1199]
[unused1200]
[unused1201]
[unused1202]
[unused1203]
[unused1204]
[unused1205]
[unused1206]
[unused1207]
[unused1208]
[unused1209]
[unused1210]
[unused1211]
[unused1212]
[unused1213]
[unused1214]
[unused1215]
[unused1216]
[unused1217]
[unused1218]
[unused1219]
[unused1220]
[unused1221]
[unused1222]
[unused1223]
[unused1224]
[unused1225]
[unused1226]
[unused1227]
[unused1228]
[unused1229]
[unused1230]
[unused1231]
[unused1232]
[unused1233]
[unused1234]
[unused1235]
[unused1236]
[unused1237]
[unused1238]
[unused1239]
[unused1240]
[unused1241]
[unused1242]
[unused1243]
[unused1244]
[unused1245]
[unused1246]
[unused1247]
[unused1248]
[unused1249]
[unused1250]
[unused1251]
[unused1252]
[unused1253]
[unused1254]
[unused1255]
[unused1256]
[unused1257]
[unused1258]
[unused1259]
[unused1260]
[unused1261]
[unused1262]
[unused1263]
[unused1264]
[unused1265]
[unused1266]
[unused1267]
[unused1268]
[unused1269]
[unused1270]
[unused1271]
[unused1272]
[unused1273]
[unused1274]
[unused1275]
[unused1276]
[unused1277]
[unused1278]
[unused1279]
[unused1280]
[unused1281]
[unused1282]
[unused1283]
[unused1284]
[unused1285]
[unused1286]
[unused1287]
[unused1288]
[unused1289]
[unused1290]
[unused1291]
[unused1292]
[unused1293]
[unused1294]
[unused1295]
[unused1296]
[unused1297]
[unused1298]
[unused1299]
[unused1300]
[unused1301]
[unused1302]
[unused1303]
[unused1304]
[unused1305]
[unused1306]
[unused1307]
[unused1308]
[unused1309]
[unused1310]
[unused1311]
[unused1312]
[unused1313]
[unused1314]
[unused1315]
[unused1316]
[unused1317]
[unused1318]
[unused1319]
[unused1320]
[unused1321]
[unused1322]
[unused1323]
[unused1324]
[unused1325]
[unused1326]
[unused1327]
[unused1328]
[unused1329]
[unused1330]
[unused1331]
[unused1332]
[unused1333]
[unused1334]
[unused1335]
[unused1336]
[unused1337]
[unused1338]
[unused1339]
[unused1340]
[unused1341]
[unused1342]
[unused1343]
[unused1344]
[unused1345]
[unused1346]
[unused1347]
[unused1348]
[unused1349]
[unused1350]
[unused1351]
[unused1352]
[unused1353]
[unused1354]
[unused1355]
[unused1356]
[unused1357]
[unused1358]
[unused1359]
[unused1360]
[unused1361]
[unused1362]
[unused1363]
[unused1364]
[unused1365]
[unused1366]
[unused1367]
[unused1368]
[unused1369]
[unused1370]
[unused1371]
[unused1372]
[unused1373]
[unused1374]
[unused1375]
[unused1376]
[unused1377]
[unused1378]
[unused1379]
[unused1380]
[unused1381]
[unused1382]
[unused1383]
[unused1384]
[unused1385]
[unused1386]
[unused1387]
[unused1388]
[unused1389]
[unused1390]
[unused1391]
[unused1392]
[unused1393]
[unused1394]
[unused1395]
[unused1396]
[unused1397]
[unused1398]
[unused1399]
[unused1400]
[unused1401]
[unused1402]
[unused1403]
[unused1404]
[unused1405]
[unused1406]
[unused1407]
[unused1408]
[unused1409]
[unused1410]
[unused1411]
[unused1412]
[unused1413]
[unused1414]
[unused1415]
[unused1416]
[unused1417]
[unused1418]
[unused1419]
[unused1420]
[unused1421]
[unused1422]
[unused1423]
[unused1424]
[unused1425]
[unused1426]
[unused1427]
[unused1428]
[unused1429]
[unused1430]
[unused1431]
[unused1432]
[unused1433]
[unused1434]
[unused1435]
[unused1436]
[unused1437]
[unused1438]
[unused1439]
[unused1440]
[unused1441]
[unused1442]
[unused1443]
[unused1444]
[unused1445]
[unused1446]
[unused1447]
[unused1448]
[unused1449]
[unused1450]
[unused1451]
[unused1452]
[unused1453]
[unused1454]
[unused1455]
[unused1456]
[unused1457]
[unused1458]
[unused1459]
[unused1460]
[unused1461]
[unused1462]
[unused1463]
[unused1464]
[unused1465]
[unused1466]
[unused1467]
[unused1468]
[unused1469]
[unused1470]
[unused1471]
[unused1472]
[unused1473]
[unused1474]
[unused1475]
[unused1476]
[unused1477]
[unused1478]
[unused1479]
[unused1480]
[unused1481]
[unused1482]
[unused1483]
[unused1484]
[unused1485]
[unused1486]
[unused1487]
[unused1488]
[unused1489]
[unused1490]
[unused1491]
[unused1492]
[unused1493]
[unused1494]
[unused1495]
[unused1496]
[unused1497]
[unused1498]
[unused1499]
[unused1500]
[unused1501]
[unused1502]
[unused1503]
[unused1504]
[unused1505]
[unused1506]
[unused1507]
[unused1508]
[unused1509]
[unused1510]
[unused1511]
[unused1512]
[unused1513]
[unused1514]
[unused1515]
[unused1516]
[unused1517]
[unused1518]
[unused1519]
[unused1520]
[unused1521]
[unused1522]
[unused1523]
[unused1524]
[unused1525]
[unused1526]
[unused1527]
[unused1528]
[unused1529]
[unused1530]
[unused1531]
[unused1532]
[unused1533]
[unused1534]
[unused1535]
[unused1536]
[unused1537]
[unused1538]
[unused1539]
[unused1540]
[unused1541]
[unused1542]
[unused1543]
[unused1544]
[unused1545]
[unused1546]
[unused1547]
[unused1548]
[unused1549]
[unused1550]
[unused1551]
[unused1552]
[unused1553]
[unused1554]
[unused1555]
[unused1556]
[unused1557]
[unused1558]
[unused1559]
[unused1560]
[unused1561]
[unused1562]
[unused1563]
[unused1564]
[unused1565]
[unused1566]
[unused1567]
[unused1568]
[unused1569]
[unused1570]
[unused1571]
[unused1572]
[unused1573]
[unused1574]
[unused1575]
[unused1576]
[unused1577]
[unused1578]
[unused1579]
[unused1580]
[unused1581]
[unused1582]
[unused1583]
[unused1584]
[unused1585]
[unused1586]
[unused1587]
[unused1588]
[unused1589]
[unused1590]
[unused1591]
[unused1592]
[unused1593]
[unused1594]
[unused1595]
[unused1596]
[unused1597]
[unused1598]
[unused1599]
[unused1600]
[unused1601]
[unused1602]
[unused1603]
[unused1604]
[unused1605]
[unused1606]
[unused1607]
[unused1608]
[unused1609]
[unused1610]
[unused1611]
[unused1612]
[unused1613]
[unused1614]
[unused1615]
[unused1616]
[unused1617]
[unused1618]
[unused1619]
[unused1620]
[unused1621]
[unused1622]
[unused1623]
[unused1624]
[unused1625]
[unused1626]
[unused1627]
[unused1628]
[unused1629]
[unused1630]
[unused1631]
[unused1632]
[unused1633]
[unused1634]
[unused1635]
[unused1636]
[unused1637]
[unused1638]
[unused1639]
[unused1640]
[unused1641]
[unused1642]
[unused1643]
[unused1644]
[unused1645]
[unused1646]
[unused1647]
[unused1648]
[unused1649]
[unused1650]
[unused1651]
[unused1652]
[unused1653]
[unused1654]
[unused1655]
[unused1656]
[unused1657]
[unused1658]
[unused1659]
[unused1660]
[unused1661]
[unused1662]
[unused1663]
[unused1664]
[unused1665]
[unused1666]
[unused1667]
[unused1668]
[unused1669]
[unused1670]
[unused1671]
[unused1672]
[unused1673]
[unused1674]
[unused1675]
[unused1676]
[unused1677]
[unused1678]
[unused1679]
[unused1680]
[unused1681]
[unused1682]
[unused1683]
[unused1684]
[unused1685]
[unused1686]
[unused1687]
[unused1688]
[unused1689]
[unused1690]
[unused1691]
[unused1692]
[unused1693]
[unused1694]
[unused1695]
[unused1696]
[unused1697]
[unused1698]
[unused1699]
[unused1700]
[unused1701]
[unused1702]
[unused1703]
[unused1704]
[unused1705]
[unused1706]
[unused1707]
[unused1708]
[unused1709]
[unused1710]
[unused1711]
[unused1712]
[unused1713]
[unused1714]
[unused1715]
[unused1716]
[unused1717]
[unused1718]
[unused1719]
[unused1720]
[unused1721]
[unused1722]
[unused1723]
[unused1724]
[unused1725]
[unused1726]
[unused1727]
[unused1728]
[unused1729]
[unused1730]
[unused1731]
[unused1732]
[unused1733]
[unused1734]
[unused1735]
[unused1736]
[unused1737]
[unused1738]
[unused1739]
[unused1740]
[unused1741]
[unused1742]
[unused1743]
[unused1744]
[unused1745]
[unused1746]
[unused1747]
[unused1748]
[unused1749]
[unused1750]
[unused1751]
[unused1752]
[unused1753]
[unused1754]
[unused1755]
[unused1756]
[unused1757]
[unused1758]
[unused1759]
[unused1760]
[unused1761]
[unused1762]
[unused1763]
[unused1764]
[unused1765]
[unused1766]
[unused1767]
[unused1768]
[unused1769]
[unused1770]
[unused1771]
[unused1772]
[unused1773]
[unused1774]
[unused1775]
[unused1776]
[unused1777]
[unused1778]
[unused1779]
[unused1780]
[unused1781]
[unused1782]
[unused1783]
[unused1784]
[unused1785]
[unused1786]
[unused1787]
[unused1788]
[unused1789]
[unused1790]
[unused1791]
[unused1792]
[unused1793]
[unused1794]
[unused1795]
[unused1796]
[unused1797]
[unused1798]
[unused1799]
[unused1800]
[unused1801]
[unused1802]
[unused1803]
[unused1804]
[unused1805]
[unused1806]
[unused1807]
[unused1808]
[unused1809]
[unused1810]
[unused1811]
[unused1812]
[unused1813]
[unused1814]
[unused1815]
[unused1816]
[unused1817]
[unused1818]
[unused1819]
[unused1820]
[unused1821]
[unused1822]
[unused1823]
[unused1824]
[unused1825]
[unused1826]
[unused1827]
[unused1828]
[unused1829]
[unused1830]
[unused1831]
[unused1832]
[unused1833]
[unused1834]
[unused1835]
[unused1836]
[unused1837]
[unused1838]
[unused1839]
[unused1840]
[unused1841]
[unused1842]
[unused1843]
[unused1844]
[unused1845]
[unused1846]
[unused1847]
[unused1848]
[unused1849]
[unused1850]
[unused1851]
[unused1852]
[unused1853]
[unused1854]
[unused1855]
[unused1856]
[unused1857]
[unused1858]
[unused1859]
[unused1860]
[unused1861]
[unused1862]
[unused1863]
[unused1864]
[unused1865]
[unused1866]
[unused1867]
[unused1868]
[unused1869]
[unused1870]
[unused1871]
[unused1872]
[unused1873]
[unused1874]
[unused1875]
[unused1876]
[unused1877]
[unused1878]
[unused1879]
[unused1880]
[unused1881]
[unused1882]
[unused1883]
[unused1884]
[unused1885]
[unused1886]
[unused1887]
[unused1888]
[unused1889]
[unused1890]
[unused1891]
[unused1892]
[unused1893]
[unused1894]
[unused1895]
[unused1896]
[unused1897]
[unused1898]
[unused1899]
[unused1900]
[unused1901]
[unused1902]
[unused1903]
[unused1904]
[unused1905]
[unused1906]
[unused1907]
[unused1908]
[unused1909]
[unused1910]
[unused1911]
[unused1912]
[unused1913]
[unused1914]
[unused1915]
[unused1916]
[unused1917]
[unused1918]
[unused1919]
[unused1920]
[unused1921]
[unused1922]
[unused1923]
[unused1924]
[unused1925]
[unused1926]
[unused1927]
[unused1928]
[unused1929]
[unused1930]
[unused1931]
[unused1932]
[unused1933]
[unused1934]
[unused1935]
[unused1936]
[unused1937]
[unused1938]
[unused1939]
[unused1940]
[unused1941]
[unused1942]
[unused1943]
[unused1944]
[unused1945]
[unused1946]
[unused1947]
[unused1948]
[unused1949]
[unused1950]
[unused1951]
[unused1952]
[unused1953]
[unused1954]
[unused1955]
[unused1956]
[unused1957]
[unused1958]
[unused1959]
[unused1960]
[unused1961]
[unused1962]
[unused1963]
[unused1964]
[unused1965]
[unused1966]
[unused1967]
[unused1968]
[unused1969]
[unused1970]
[unused1971]
[unused1972]
[unused1973]
[unused1974]
[unused1975]
[unused1976]
[unused1977]
[unused1978]
[unused1979]
[unused1980]
[unused1981]
[unused1982]
[unused1983]
[unused1984]
[unused1985]
[unused1986]
[unused1987]
[unused1988]
[unused1989]
[unused1990]
[unused1991]
[unused1992]
[unused1993]
[unused1994]
[unused1995]
[unused1996]
[unused1997]
[unused1998]
[unused1999]
[unused2000]
a
##sz
##el
##et
##en
m
##gy
k
##er
##at
##és
t
h
##an
##ek
##al
v
##em
##ás
##eg
##ál
sz
f
##ol
##in
##on
n
##ak
az
##es
##ár
##or
##ez
A
##is
##ok
##ny
l
##ér
##ég
és
b
##os
##tt
##ik
##ar
##egy
el
##cs
##ít
##át
##án
##ül
##oz
meg
s
##él
##bb
p
r
##ap
egy
##ogy
j
kö
##ed
##agy
##ett
is
##ét
##én
##ék
##il
##om
hogy
##ág
##ben
##ban
##it
##szt
##am
##ség
##ad
##nk
##int
d
##ott
M
nem
##ul
##og
##ni
##ól
##ép
i
##as
E
##ag
##ut
##ény
fel
##ész
##ja
##re
cs
##ra
##ely
K
S
ki
##het
##áll
1
##az
##aj
al
##iz
le
##ám
##ány
(
##ig
##nak
szer
##év
##ák
##ért
##ind
##ell
##ot
##ai
##ent
##end
##unk
##ör
##ált
am
2
köz
##ől
##hat
##nek
T
##ci
##od
ak
##us
##áz
ez
B
Az
H
##art
##olt
##ön
##szer
##ev
##ság
##ud
##ont
##uk
N
gy
g
##ej
##ük
##oly
I
mind
vagy
ú
##00
F
##ab
##esz
##ös
##öl
ha
ny
ter
##ír
P
c
##öz
##ert
val
##kez
ad
##atás
V
##ók
##alm
ér
Sz
##ta
##ond
##ep
##val
##ív
de
év
##ők
rend
##est
##ill
-
##olg
##ítás
##len
volt
##vet
##kor
leg
nagy
id
##ök
##ünk
##ezet
##éz
ut
##ában
##ább
van
elő
áll
##ály
##ött
##id
már
D
kell
tud
ker
##ve
jel
##ése
lehet
##ód
##orm
##áj
szám
L
##ba
C
##eket
##elő
##emb
G
##nál
##ov
##um
##elm
hely
##ur
##01
##ára
##att
##eszt
él
er
##ében
be
csak
##ület
##..
##okat
##av
##öbb
##iv
##ir
##ebb
##koz
es
##hoz
kap
##ció
R
##ély
még
J
##aszt
tör
pr
mag
tart
##ony
##agyar
–
##elt
##asz
minden
##mény
##ént
z
mint
##im
##dés
tel
más
fog
##ember
##össz
##ból
ig
##":
##ős
##éd
##úl
##ható
ü
kép
biz
##ia
több
##isz
##,"
##ült
szem
##öv
##eny
##old
##iszt
##ém
##ának
össz
mi
vég
##be
azt
##ési
##ása
##ató
##kal
Ez
##szág
##...
##zet
##obb
sem
kül
amely
##esen
##hez
3
##ének
##ink
alap
##ső
nap
##ére
ért
##ort
##ult
##op
át
##ajd
É
##ális
##let
##ző
rész
##ról
##enn
kez
##ást
tan
201
új
##ch
##fel
O
##yen
##ország
##va
##íz
##ei
##eh
##ján
munk
ar
##ob
##ín
##juk
mű
##and
##ozz
##árt
##ór
##kö
##ával
##leg
szerint
##étel
for
##ost
##atok
##ád
bel
##abb
u
oly
an
##ilyen
##áció
hat
##ós
tal
valam
##zés
eset
akkor
kör
##ót
Egy
##által
##ják
##ani
##st
követ
term
##ikus
han
##köz
##őr
##áros
vál
##hető
ill
olyan
in
##tet
##ások
sok
##nyi
##csol
##árs
##ított
í
hasz
##edig
##ilág
sor
kor
##almaz
jelent
##elés
##őt
##ug
lát
##vény
alk
kér
##ási
szak
##egész
##na
##ítés
után
##erm
kész
##eng
##tel
bizt
##mer
##ked
ép
kis
ember
##ovább
##eb
jog
##vez
##ölt
két
ok
tört
##áb
ami
mert
jó
vis
azon
által
##ről
így
pedig
fi
telj
ellen
##kel
foly
##ef
##őség
##pont
##kol
##ász
##ház
ah
##lt
„
##ével
19
érd
fej
magyar
lesz
##","
##eti
külön
##any
4
##":"
##ből
szab
##ikor
##etlen
élet
##atos
mond
##emény
##ette
5
idő
##jt
##eni
mell
##ekt
Nem
majd
##ikai
##aság
hal
##öld
em
##nap
igaz
##lő
##árm
##ata
hozz
e
úgy
##ati
mely
egész
##ontos
##azd
##vezet
##lan
gond
##óg
##egít
kapcsol
ir
int
##je
"
##óz
való
##kép
Á
Ha
##ki
##oszt
##ím
megt
##elem
st
nev
között
világ
##jel
##hely
##esség
##szerű
vált
tovább
##ként
##alom
##elet
##ormány
##ossz
illet
ír
történ
vissz
##gyan
##oldal
Ö
##ló
ö
min
##ést
első
##atkoz
##állal
##lal
biztos
nagyon
saj
##incs
##ozt
##sal
##ram
##kül
Z
##pr
mód
szolg
##ezt
##áv
##rend
kezd
##séges
##jük
##un
használ
##esít
##szak
talál
ezt
##kod
cél
##ers
men
Magyar
##ját
ol
##ezett
##ozott
személy
ját
te
U
segít
##atal
aki
##inek
szeret
##ób
##le
##ha
##ezés
##adás
érdek
##fog
##önt
tám
##ic
##ip
nek
##ió
##ing
ár
ered
##ező
##izs
##ító
##),
##omány
##SZ
##ord
##erek
vezet
##tam
##ogram
rendszer
most
en
##ter
von
##ivel
##akor
dolg
ugyan
##vas
fő
##ügy
##enek
szint
##tak
##áról
##ván
##óp
##0-
kom
egyik
##öm
6
##vel
##észet
##észt
##ozás
illetve
né
lak
##ács
##atlan
200
##form
hi
##fi
elm
##arad
érték
##lát
szük
##ög
cím
Cs
bet
besz
adat
ó
alatt
##ck
felt
##ütt
##izet
##elmi
##br
##hasz
rendel
##nyv
##se
##).
jelen
itt
ind
##lat
##0000
##ített
ott
##szám
per
kiv
##eli
akik
##ozó
hang
##nök
szól
valamint
ked
##vis
##izsg
##zel
##leszt
út
any
csal
##ából
##dő
##vány
##hu
lét
következ
##ába
##énz
ne
vár
##201
kon
társ
##ések
Köz
##enni
##gg
##fej
megfel
##osz
##enne
##of
szín
##eres
##AT
##ull
##tart
##űn
El
ügy
##élkül
##éb
amit
visz
sik
Gy
##utat
szerep
terület
##ün
##ran
8
##erg
##lap
##éld
ország
száz
##ass
W
##EL
rendelkez
##ermek
##pl
mér
arra
támog
ilyen
hanem
előtt
7
nincs
##tatás
##ekint
együtt
fél
oldal
##íj
##ekkel
üz
vállal
##.)
##alak
program
##udap
##enc
##zs
figy
saját
##uróp
##ánt
##udapest
miatt
##fél
foglal
##olna
##árom
mellett
##atot
választ
műkö
##használ
##ajt
##ormányz
hisz
##iai
amikor
kív
##tat
##állítás
család
Am
##azdaság
lehetőség
In
##ékeny
pont
ház
számára
##ekben
##almas
##1.
én
##jár
szolgált
ör
sp
##osan
Mind
tag
##ügg
határ
##véd
gondol
##ess
##fal
túl
##nél
alapján
##ium
##adó
##ülés
De
##pen
##usz
An
##te
nélkül
1.
ő
##ását
termék
ahol
jár
volna
##erseny
##ános
##újt
##omb
##ors
##ológ
har
10
jobb
##mű
##sége
azonban
igény
##út
##ant
tár
folyam
esz
##elv
pály
alkalmaz
költ
péld
##dig
##orv
##ája
##up
ismer
##áló
megfelelő
Meg
játék
aut
tanul
Mi
ór
jól
teljes
##ához
vesz
kev
##2.
közös
##iség
rá
törvény
##szín
ism
##ang
9
lett
##lás
pénz
##őket
##egyen
aján
##ET
tiszt
keres
##úz
néz
felad
Ist
ön
##sel
##ozat
csap
gyakor
##nkormányz
##okkal
hagy
eredmény
##eked
kar
##brand
##tól
Nagy
##ark
annak
##ták
elv
hét
gyermek
pár
intéz
dönt
##ika
ma
hatás
##amp
vissza
##ásár
város
##onság
##ően
##üt
kerül
nyil
bizony
##gel
##oda
során
##oll
eml
##tár
körny
Budapest
jav
##séget
tér
mindig
haz
##határ
##ne
##essz
kit
szabály
víz
##uszt
##ilm
szabad
##ern
##anak
fontos
olvas
##oport
növ
##átt
##hány
vizsg
irány
##2-
inform
Szer
##ER
azért
##ítani
##ri
marad
kötel
véd
##ac
##úly
##éről
azok
##all
##enged
nemzet
##assz
bev
##zett
Ú
##etek
##3.
hozzá
##8.
w
anyag
szó
##olit
akar
##öt
form
##ocs
megv
15
ed
elt
nyom
##ellem
##inak
siker
megjel
lép
kérdés
##íg
##nok
##ással
##érték
##ánk
semm
test
akár
##etem
szerző
esetén
##esebb
##ason
Magyarország
##ábor
##ciók
kereszt
szervezet
három
mill
alak
(1
##őv
##ür
##élet
##kész
##szön
##úr
##4.
megsz
##inkább
##osság
##ógy
természet
##eit
ford
beszél
##0.
##ökk
##ítása
vel
##evékeny
elég
bek
##zi
##chn
##ánd
##ügyi
##uló
##éhez
reg
rég
##hon
különb
##só
hossz
ezért
##ulajd
verseny
##nny
##telen
vonatkoz
##ennyi
##övet
gyerek
éves
hát
##lak
iskol
##isbrand
##false
##ásra
##1-
##ári
##őbb
nép
##ört
##ejt
##itel
##ségi
össze
bar
tekint
tesz
##tal
##foly
szolgáltatás
##alék
##eknek
fér
állam
##ex
##ői
##dik
hiszen
##ájék
##7-
##mány
##aton
másik
öt
egyéb
lev
##áp
##ma
zs
magas
vannak
##obl
##ául
Or
könny
haj
##atban
##artn
##mal
moz
##ését
##ka
##hogy
adott
##ru
##ec
##oh
##ációs
tevékeny
táv
##ször
##últ
##orr
egyes
hó
##ub
##anyag
##ist
ment
támogatás
##urópai
vél
##asztal
helyzet
szív
##leges
szép
##ségek
##ágy
##almi
##éter
##ítő
##EN
kut
hall
SZ
telep
##gt
elér
nyug
közel
##ment
körül
##szab
fejleszt
##6.
##enci
Er
megh
di
felhasznál
##acs
##ron
##okban
En
18
jöv
belül
##GY
##oblém
oszt
kí
##etés
könyv
megold
##mel
megy
##ábbi
##odik
##tem
ebb
milyen
##vétel
##ezni
##ismer
ezek
##ib
tény
munka
szóló
##új
meghatár
kics
egym
##után
##nos
##oj
par
##gató
részt
:
##szik
viszont
cég
perc
beteg
##viselő
##ítja
szükséges
##nagy
##7.
##őz
##6-
##től
##mai
##5.
erős
##jon
##oló
foglalkoz
kedv
És
lenne
##ivatal
##azdasági
##tek
tap
##ulás
##ester
eszköz
jut
kés
##sze
##ájékozt
problém
érz
##sor
bej
tulajd
##eken
##mér
száll
##ion
függ
##org
##árd
##atív
##5-
##ogat
Al
##űr
##föld
nagyobb
vagyok
##ákat
##4-
abb
amelyek
##jobb
##3-
##óbb
##ene
nyelv
##iss
érint
film
egyszerű
hason
##ói
bem
évi
##nal
bárm
##ete
legyen
gyors
hír
Fel
##nő
föld
##álni
forint
##ettel
megáll
2.
##ékony
X
##ehát
néhány
került
##0000-
Ny
fogy
mod
megk
##ottság
##olás
enged
##nem
hónap
elem
nyújt
##onal
##csak
esetben
##ettek
##nev
mit
ide
##öző
Pr
lel
##íp
##ÁS
##lés
##üntet
##orvos
##gat
##olni
##jai
kialak
környezet
##emes
szeretn
százalék
0
megb
##lag
nyilván
##űz
##ülő
pályáz
inkább
bír
Í
é
##ari
##oci
##ver
##szolg
intézmény
##elked
műv
##elni
mutat
##ens
gyógy
forr
például
emlék
##apot
##izt
els
##ették
fenn
ellát
##ikk
##8-
köt
##ekre
bár
pl
##mus
##ésre
gép
legjobb
tervez
##zal
legal
polit
##émet
teljesít
##ock
igen
##lam
tárgy
##ept
##fizet
##ford
csökk
eljár
tartalmaz
##mag
##ÉS
feltétel
segítség
##övid
valami
##álat
##andó
kormány
##ettem
##ezte
fény
utc
ahogy
őket
ezzel
##ető
elfog
szerződés
közül
vásár
további
kr
csat
techn
##dött
négy
köszön
##közi
vas
fizet
létre
következő
harm
vonatkozó
##íts
szükség
szél
##oknak
##lik
##/201
Ön
##9.
fr
vezető
elnök
##ista
##díj
Ad
egyszer
##ébe
##ozni
ismert
##őleg
##esek
található
##ly
kl
##jegy
##hetetlen
Minden
fiatal
##talan
##II
ál
##ssz
##eteg
vid
##ank
##okon
társad
##AL
kil
##ehér
érkez
tem
##jában
im
##ón
dr
##osítás
tapasztal
##aki
##otta
##évő
szav
##álló
20
##heti
ennek
egyed
##jabb
##ációk
##ird
12
kívül
##féle
##ait
##EK
##tor
kir
##NY
idej
##etében
##ús
csoport
adatok
##ezz
energ
teljesen
Ak
neki
,
újra
rossz
##ölcs
##űjt
##üz
##ozik
##akat
##nagyobb
tölt
##ásban
##elős
arról
##áját
##%-
második
##dése
##rel
voltak
Nemzet
##itk
annyi
##endő
##álaszt
##ong
tudom
##ory
##szor
utol
egyre
prób
##atosan
##iskol
szok
fal
Azt
legalább
##ics
mivel
készül
alkot
##9-
szervez
pontos
##za
jegy
ajánl
##efon
fut
“
##ípus
tulajdon
raj
akt
##emelt
kellett
##sági
helyi
##ie
##észeti
##etet
##ánc
##ottak
tém
eddig
/
II
díj
##200
óta
##gal
199
Már
mondta
##ke
##endég
minőség
erre
##OR
Ü
vállalkoz
##itás
Dr
##hagy
iz
##OS
kat
Ér
##rat
##ow
##álás
önkormányz
barát
##város
költség
figyelm
érdekében
biztonság
megjelen
Ig
##ih
##iac
##partn
##OL
fok
kik
játsz
##eget
hív
számít
ész
alá
épít
kifej
ezen
közép
##nep
kéz
nő
különböző
##adik
##he
##eztet
hiány
csapat
legnagyobb
tájékozt
mik
bal
találkoz
##adék
benne
##ft
##amar
##íl
##erül
##null
emberek
tet
szen
##arab
##meg
##ókat
##ÁL
fin
hon
tr
kult
kény
jellem
azzal
forg
válasz
##hív
##adott
neh
keresztül
##hatja
módon
gazd
3.
##ennyiben
##AR
##ff
tehát
##ózs
hasonló
##ilag
sport
[
##sér
szület
hogyan
készít
##adt
##erj
megállap
##utató
##ésére
éppen
vele
##akt
feladat
##okra
rövid
##la
ing
csin
című
Ar
##uh
történő
magát
férfi
állapot
baj
##szabály
##áig
lap
hosszú
##itt
személyes
##ította
##olog
##előtt
közvet
##ÁR
##cia
készült
egészség
Isten
##átor
##ományos
ber
St
##álja
web
est
rendez
ezer
ugyanis
tevékenység
változ
rendelet
##omag
##óval
szempont
kíván
##élt
##ázs
bor
##védelmi
##evő
megl
11
##enti
##embe
szül
szakmai
##igaz
később
##ine
##anu
bele
szemben
##né
##ságot
fogyaszt
##énk
semmi
##ekv
jelentős
ebben
erő
ci
felelős
Önkormányz
dél
##port
millió
##nnep
üzlet
##jét
Kö
##izmus
##mun
##log
legf
értelm
##ast
részlet
##ES
Ezt
##ard
##000
Ft
##ukat
##ilis
végre
jövő
##elj
Alap
adó
lény
se
##AN
fáj
maga
##jának
utolsó
##ecs
##műv
##ehet
##encs
vendég
épület
##ábban
##li
Is
##nyit
##dolg
##mond
bekez
Szent
mégis
cikk
&
##vonal
tudja
szinte
Ő
kicsit
Egyes
időszak
##ászló
##eink
összef
Bal
zen
sokkal
mindenki
konc
talán
##attal
jelenleg
##ítvány
##ann
##űt
javas
Hogy
##kör
felé
##uális
##uház
míg
óra
aztán
##nált
elekt
##esítés
érvény
##men
mérték
##ya
dok
nehéz
okt
lévő
ellenőr
##.”
##rendszer
ünnep
abban
##jából
á
kevés
##iszter
##ro
##Az
összeg
kisebb
Ál
mozg
##ojekt
##lődés
egyen
István
szöv
közt
##éklet
##akar
##EM
éve
##cius
esemény
##avar
része
##ON
közl
kiz
##//
let
##súly
##ítése
azonos
miért
##eség
helyett
Fer
##ttp
##mények
Szab
polg
##ulat
mot
különös
ap
esetében
célja
##éssel
Ki
##apcsol
##hajt
##szi
alábbi
##age
##://
##ódó
évben
osztály
felv
követően
tök
komoly
otthon
##írás
kapcsolatos
##elent
##több
##ológiai
##két
képviselő
Én
évek
##ED
használat
közben
név
14
##af
Em
Il
menny
hozzáj
dolog
##tan
rep
lem
vit
##elleg
érdemes
oda
##óta
op
##folyam
16
nemzetközi
süt
Kép
hol
...
vélemény
##fő
##elési
nekem
##óság
föl
##pal
gyárt
##ay
##test
Így
hoz
megrend
nyit
##ox
száma
##inc
re
pill
hazai
dí
##emt
##ah
##oc
##hatnak
##valós
##úra
zár
máj
##tunk
többi
orvos
Tan
##óber
bőr
mély
Elő
Tud
László
##alap
kezelés
folytat
##einek
##OK
##20
##ködés
##olja
##ására
##éből
tűn
működés
vér
##szint
##rom
gazdasági
stb
módszer
jobban
##anuár
##űv
ismét
persze
##ument
szoci
Ne
rem
Ennek
13
##őle
rög
##ozza
típus
##eptember
##ívül
##eged
kedvez
történt
##rész
##aut
And
##alk
##ától
##zése
##ook
##néz
átlag
##fejleszt
1-
##ünket
##nia
jogos
##per
segítségével
ható
megvalós
##sága
##de
elmúlt
jelentkez
álló
darab
elk
képes
##orban
súly
töm
4.
hivatal
##erő
##íteni
##szem
##AK
##rá
17
kapott
viszony
sikerült
##egyed
információ
látt
##színű
veszély
##unkat
##vár
régi
lég
valaki
##ikl
utaz
hib
##zési
##ezik
lényeg
30
##erikai
##ttal
##iget
##ítható
##nyire
tanács
##óri
##hetően
hitel
Csak
##kívül
##mert
jön
##álóz
##irt
ingatlan
##aval
mindent
Kr
##igy
kapcsolatban
jött
##ltal
or
megm
##ásával
projekt
jelleg
milli
##enes
központ
fot
benn
##üket
lány
pap
Európai
##óbbi
##alál
##érd
##par
számos
##hatatlan
##edett
##vezető
nov
##oha
##tatási
meghatározott
##beli
szerv
figyel
Ezek
mikor
előre
##íti
íz
mai
Zs
##ódik
##ileg
magam
##ándor
##omat
##AP
gyakorlat
egyetlen
##di
##hang
március
##akban
on
általános
##ius
Által
##éri
##etett
ideg
legtöbb
kam
(2
időt
##isztr
##IN
korábban
##....
##iről
engedély
##ásokat
biztosít
##utt
##öny
##prilis
##ársaság
##elen
Most
piac
##földi
telefon
##atási
tett
helyen
elkész
##elése
János
##ítási
újabb
dob
##ektet
talált
##19
egyetem
##jára
Kft
szob
##uz
##olc
január
##alt
század
##jön
##kr
összes
Város
poz
mer
##Sz
##iket
##enz
##áltató
##ármaz
##arc
azokat
ab
100
lenni
távol
mel
fehér
##idő
##--
történet
kezdő
csökkent
##da
arány
fenntart
##kalom
##áns
május
csomag
Nemzeti
kett
##uc
végén
##tim
friss
Magyarországon
Európ
##min
harmadik
##cont
elérhető
##testület
##EZ
Biz
##gyű
alkalom
szerinti
október
##hetnek
##elte
##ró
vagyunk
kínál
kapcsolat
irod
szöveg
##image
##10
szeptember
##hatunk
##fer
zöld
Ferenc
##ázat
Term
##sp
##kori
melyek
amerikai
amelyet
szintén
neve
##enger
##ásának
rom
##content
(1)
##oldog
##elek
tökélet
##ezése
##csi
hird
élő
halál
Új
##úgy
örök
Ol
##úcs
ÉS
##lenül
##oss
##agóg
információk
belső
éj
sen
elmond
##":"201
##mód
igazán
óv
##acsony
##gr
bűn
először
##50
bér
##nius
vez
##ármester
##cember
##edv
##story
használt
##ték
##isbrandcontent
ex
ról
király
ahhoz
Nagyon
##ÁN
##sh
arc
Még
##0000-0000-
napon
fogad
funk
cser
hull
német
kötelezett
elej
##akkor
kock
bekezdés
hozzájár
teszi
##únius
##ésével
##jed
##bizt
##!!
##avaly
európai
##tud
##eum
##utatás
##irág
##ÁG
küld
csod
##bben
dokument
ám
##örtén
##gész
nál
##olta
Y
##éni
##éve
##etes
honlap
származ
rendezvény
##hatjuk
pillan
kísér
emberi
tartott
Sok
szár
Val
ég
komp
##vált
##orn
párt
##álkod
azaz
##gol
Ország
közötti
##urális
fiz
##EG
csup
KÖ
április
##özben
november
tanulmány
##ái
##ail
##."
megbíz
##ésének
szor
##erült
kijel
Péter
tartalm
legy
mennyiség
ét
##36
##30
hatékony
okoz
elfogad
##ebru
látható
##lev
##árólag
##edagóg
keretében
##lék
támogat
##érium
##zat
kb
képvis
##TI
5.
Szak
terv
§
##usztus
Van
Általános
Tovább
Int
Józs
gyűjt
##fér
végig
nyilatkoz
##üv
elh
sokat
miniszter
jogszabály
Egyetem
##vég
intern
növény
azonnal
Itt
megfelelően
idén
annyira
##eci
terh
indul
autó
számú
##keres
tehet
##ontosabb
felf
##prób
##ÉG
##akran
##var
##ved
Ch
hid
végzett
##vg
##zék
december
korábbi
##ílus
##IS
##junk
eltér
általában
##ősorban
##-,
ellenére
élmény
részére
bef
##ruk
győz
Nap
##osabb
eszközök
.
##rec
munkav
##keszt
##ezi
vizsgál
őr
akart
akad
##80
továbbá
##inket
##őzés
##munik
##line
felső
##raj
társaság
##ebruár
vide
jellemző
##erős
lakás
##nan
##ipt
bizonyos
EU
##iát
##részt
pan
addig
##zik
Amennyiben
##-4
##óra
##ugusztus
rendkívül
tűz
település
Te
Per
Kül
##vagy
Mar
Rend
Szolg
##enet
##ere
##oztat
##AI
amelynek
##eset
fest
##jen
milliárd
lass
csatlak
kellene
József
hő
tenni
igy
##rt
##90
öröm
korlát
Amikor
##ekkor
##csoport
dolgoz
tényleg
gar
##zők
kizárólag
természetes
folyamatosan
vett
diák
##etű
##plom
##ttól
modell
június
##55
Ma
##zó
bejelent
megny
ur
##forr
sőt
##álkoz
vegy
időpont
ell
keresked
negyed
##kezd
##ógép
##ozása
múlt
politikai
teljesítmény
:)
esetleg
éd
vill
igazi
tudjuk
szavaz
kid
##omás
##intéz
nyert
rek
##son
bőv
##nőtt
történik
##engeteg
mög
##ségét
kutatás
##úsz
alkalmas
##ener
Ugyan
##hvg
közep
Kar
megelő
hatály
egymás
gyógyszer
##úlius
független
##írt
kin
##rancia
köszönhetően
##ivál
kateg
ezeket
br
##ekről
##ung
mos
társadalmi
##,5
##üm
láb
tur
##napi
együttmű
##mi
bank
##értelm
##ral
érintett
csupán
nemcsak
##ga
##tra
##íció
Önkormányzat
Bár
legfontosabb
##követ
kal
##ismert
mes
##emet
##fr
működ
visszat
Több
szent
##ÉK
finom
tagja
##http
Min
utóbbi
##ója
kárt
rendelkezik
##séggel
kiad
##országi
##tag
##gyel
ül
jelenti
##őként
közleked
Ó
szolgál
##ánál
fájd
##ker
##egény
hasznos
végül
eljárás
##dal
kiváló
##fok
##éseket
##osok
##sem
egészen
különösen
gomb
##ogatás
##ájában
hit
##nék
##faj
egyedül
jogosult
sajt
szellem
##képpen
##ázis
tavaly
boldog
Kis
##mail
kiegész
##adásul
##vá
fed
angol
felett
rak
##ust
képest
seb
had
##aként
##ították
koll
hamar
helyszín
##osztály
stílus
##obil
adatkez
védelm
területén
szerencs
##lott
##ítva
tíz
##ancs
Mag
Igaz
múl
sorozat
##dék
elektron
vet
rendőr
ver
beszélg
mintha
ének
mindenk
##des
50
előny
megszer
hiv
##encia
munkat
családi
járt
vág
módos
Iskol
ülés
készülék
max
##vizsg
gyakran
##vit
venni
képzés
Mivel
alacsony
képesség
##OM
február
##jú
##if
##eztem
##ized
gondolkod
##hatók
Br
AZ
Megy
##ésben
##világ
ők
##illag
megvált
##öd
##sa
nyí
különleges
növeked
lelk
##/200
üzem
eredeti
##ce
hatalmas
egyébként
##bev
ingy
valószínű
##állás
##itív
##úg
áld
rögz
25
sér
##ekete
fordul
hátt
##áború
alapvet
vágy
elkép
lehetett
kór
többet
##aliz
tév
##nie
legk
önmag
vad
##rány
##nként
##arm
##ÍT
kevesebb
##étől
könnyen
##lét
##ölgy
nehez
elsősorban
Leg
##ork
EL
##ainak
természetesen
##óm
elhely
szék
##házi
##szaki
##elnök
##odás
##óban
írás
##ellett
##közel
Uni
lab
ős
apr
augusztus
hálóz
6.
épp
##úzeum
##már
##ítette
##ezték
igazgató
alkalommal
##fa
mar
##éli
vagyis
##III
szakember
##73
##átum
folyamat
ev
##ológia
környék
Intéz
kár
weboldal
##ÉR
##pár
Bizottság
gyakorl
##ente
##ővé
med
at
##rás
##12
ref
fejlődés
ötlet
##attint
##elyik
##tuk
##lex
szenved
##őd
meglep
július
alig
##zetes
harc
##nyal
melynek
kérd
##elmény
##oft
##ber
##63
##gazd
##áért
##almat
egyet
##oltam
kötelező
soha
szór
iránt
kiállítás
külső
állami
évvel
##vi
##orú
magán
##etben
kert
közé
##külön
til
##vállal
Mert
Állam
Képviselő
##lám
##ocsát
költségvet
##ítják
##örgy
felület
Le
meleg
##ónak
##15
felül
##abban
valóban
Vagy
##hess
##db
Ezen
##általán
Kér
időben
mező
##övetség
##tr
áb
##”,
##höz
Mint
Bar
##usok
szom
Központ
##imp
előadás
minős
dokumentum
##örös
cuk
lehetséges
##áltatás
##ebben
##ője
##.,
iskola
##éig
Ter
megismer
##AS
regisztr
##ódott
kont
prof
##tató
##zott
##abil
katon
tav
##atait
##ású
szociális
összefügg
leír
##aink
ideje
##hol
jogi
kelet
tömeg
##oba
társadalom
megjelent
##hetjük
kommunik
nemzeti
Gábor
(2)
##ápl
Úgy
##lép
viz
speci
##gép
pénzügyi
##jog
küz
##tartás
gazdaság
gazdag
utas
##terület
##OZ
gyorsan
felnőtt
kedvenc
táb
##gond
hom
ném
Szám
##víz
teszt
energia
utca
létrehoz
partn
##entr
Ezért
ajándék
##ná
##esztivál
##embert
végrehajt
##álta
##ina
napi
##gazdasági
készített
rengeteg
állás
voltam
norm
##köt
##szich
beny
fegy
Kár
##janak
##omp
aszt
melyet
agy
##felé
minél
zaj
utal
gyerekek
##elmes
##ződés
templom
egyszerűen
tudni
oldalon
született
##cr
##ákkal
befoly
(3
inn
Egyesület
róla
rendelkező
kul
##;&
##bán
Saj
minim
für
köny
##ven
szakasz
##ottam
pontosan
köl
##veszt
bék
2018.
szereplő
##élyes
felk
adatokat
##ándék
szét
Jéz
##ólag
##ságát
előző
virág
kezdemény
szerintem
##ikat
eh
##aim
##jeszt
tün
198
indult
Vég
lakosság
##ikusan
elején
##urg
##lov
##”.
##érkez
kiválaszt
##18
##SÉG
+
##elep
##eként
##ily
##játék
##okból
években
##ratég
húz
arany
kín
megoldás
##könyv
kib
lehetőséget
tette
akinek
hangsúly
##pad
tor
##ácsony
Sándor
orosz
este
Zolt
sokan
étel
##CS
##egr
##üsz
Megyei
elvég
faj
ít
##ümölcs
várható
##adni
alkalm
##ula
Más
Im
valós
módosítás
##eznek
amíg
##ották
motor
##égy
beszám
állat
uni
##éj
egymást
part
##VI
összet
megtalál
egyáltalán
senki
##hetünk
##ájuk
##able
##ateg
működik
állandó
megért
##hi
intézked
igyek
édes
rajta
##esül
##építés
egyedi
mögött
lehetővé
maguk
tartozó
##ese
szállítás
Ilyen
Persze
résztv
Országos
úton
##ötét
befektet
őt
sokszor
##izen
24
maradt
of
##ila
##AM
##lőd
sajnos
minket
rag
##ajnok
Tam
##zás
továbbra
önkormányzat
##elve
##ogató
##övetkez
##űk
##száz
##forg
##zést
oktatás
mindegy
##lett
##jával
port
tenger
##szék
##emben
egyéni
##ítására
##besz
##elnek
becs
leveg
külföldi
##óknak
##SZT
észre
hajt
*
kapcsolódó
##io
számítógép
Fő
)
##oskod
Zoltán
##ame
##aba
betegség
munkatárs
##fordul
##tized
##artam
ist
teremt
##emelked
##hass
tanár
##ezzük
Jó
felvétel
éjszak
reggel
közösségi
##atott
##olvas
##ármű
Jézus
Két
Német
kategóri
##bé
##ektől
##önyör
ehhez
pályázat
magad
##sért
Ebben
mintegy
belőle
##gyűlés
##.-
##sé
##ax
esély
##ítását
kony
György
##CI
##iás
Tiszt
##okról
kerület
var
Hivatal
##igit
feladatok
##azon
hozzájárul
elnöke
melléklet
eg
Föld
##van
Érd
maxim
##alma
##ead
##elmet
szerkez
##2-4
str
##vil
Kriszt
##ton
##ítást
elj
bajnok
##lom
Sp
érdekes
méd
km
figyelembe
##anap
met
eleg
Köszön
változás
egyértelm
seg
##eleti
##omra
##eccs
Természet
krit
##ozási
nők
##ájának
felkész
##cion
##issz
polgármester
level
emelked
hallgat
napja
népszerű
nyolc
gyeng
szakért
##ajos
##isztérium
ellent
##irány
szinten
elők
Tör
csinál
##éért
Zrt
kedves
##aránt
hagyomány
indok
mester
##irat
kiemelt
kattint
40
mut
gör
Kor
##elést
vezér
vagyon
Ed
nyer
többször
##őben
hegy
termékek
idegen
tartozik
közön
2015.
látni
dal
##ajon
##áni
felúj
##árnap
dem
előbb
gyümölcs
het
##elők
##ékes
##21
##polit
##ezhető
##TT
kölcs
7.
üzleti
##tern
##003
erd
mobil
játékos
##elik
##kos
hagyományos
zavar
##asp
##onban
##yw
attól
##ogatott
##met
##ozta
##25
##irtok
tápl
Id
miközben
##lok
energi
részét
nekik
Ir
KÖZ
elektronikus
ugy
évtized
##index
Európa
üv
2013.
##elhető
közösség
pedagóg
együttműködés
tökéletes
egyaránt
##ológi
önálló
##hor
Ezzel
2-
hatóság
##ilván
pént
##álisan
döntés
##isták
##ansz
##munk
##40
Hat
8.
nekünk
##hetik
online
koncert
##eztek
fogja
##erc
##ode
berend
kötött
pozitív
kisz
sikeres
látvány
##dv
valamit
##jebb
##atart
bemutat
elkezd
##ack
##.:
állt
##önyv
##õl
leginkább
szomb
titk
Mit
##etni
elleni
##idesz
mondja
követő
vizsgálat
Att
##cript
##",
jutott
gáz
hord
tárgyal
dísz
egészséges
##rukt
##AD
valóság
internet
Jelen
##amin
tűnik
##elmiszer
##enekar
##onta
modern
##OG
tudat
##IK
magasabb
üt
tudják
##edves
##unkban
##eim
ideig
kapcs
követelmény
igazság
##OP
##ered
Be
vers
pih
##iaci
##csap
szerkeszt
##úttal
sim
izg
nyugdíj
##bar
Kl
közölt
válik
##ásos
Ut
list
##atták
műsor
##országban
remek
ebből
nappal
országos
##ezési
aktív
jót
##".
felhív
##szerűen
embert
ekkor
büntet
funkció
Össz
##écs
##sztön
##almazott
tulajdonos
tetsz
erről
ant
szándék
##qu
2016.
##essége
##kan
civil
##aceb
száml
##ekhez
##jének
lelki
mélt
András
##éket
##vér
##oznak
##onyol
blog
##iew
idéz
lesznek
##növ
előad
Oly
##17
idős
##éséhez
##hal
Tamás
tájékoztatás
ág
##haj
fenti
helyet
próbál
##áltam
kulturális
beszer
meggy
##orvát
Munk
##ásában
tánc
##ációt
rejt
egyértelmű
##nyel
ugyanakkor
##való
##zük
##örtök
terjed
említett
##akra
##szó
##term
##ütörtök
##figy
szex
Bizt
##16
részben
##fogy
Ügy
assz
##hatják
##aival
##vét
gyönyör
pal
fesz
másod
köteles
##ori
##ÜL
##ÁNY
##eik
haza
pir
széles
##und
jöved
takar
egészségügyi
bizottság
neked
##ca
bevezet
tit
szig
vala
##évén
##rem
Nek
küzd
beruház
alakul
ablak
##tünk
kölcsön
##ományi
##gatás
jelenlegi
nélküli
kemény
##aszkod
ügyfél
önkormányzati
##ein
szeretet
helyre
utána
Akkor
Adat
könnyű
##AGY
##éteg
tapasztalat
mások
feldolg
főleg
##ocsi
##idék
bármilyen
##ords
munkahely
##szav
mennyire
##fjú
##tér
csökken
sötét
Iskola
2014.
##ereg
##mérs
##ései
##isztikai
un
mértékben
Szolgáltató
tej
elind
számított
##bel
##tit
##ÉP
ezelőtt
benyújt
Mű
##edés
##ura
eny
##mod
Ap
rád
ruh
vidék
##alommal
##ultak
munkát
olcs
igénybe
egyház
francia
hideg
##iszony
##NK
felh
élvez
##evők
folyamatos
##ulni
fekete
művész
##erv
##link
##AB
##mentes
veszt
halad
Aki
##ítési
lehetne
##uid
##14
##una
kim
ajt
##com
Külön
##item
mat
egyben
töltött
megyei
forrás
##ezést
véletlen
10.
hulladék
hivatalos
újság
befolyás
old
meccs
##ht
megtart
2011.
##akció
ajánlat
##oln
szolgáltatások
probléma
gener
Miért
##akad
##krét
IS
nyár
kísérlet
keret
megfog
erej
bi
##rue
##jak
Aztán
bejegy
idei
pszich
pót
tizen
##ík
##olgár
néha
biztosan
fű
érzék
mire
##őkép
amennyiben
mellék
##ami
rec
##jenek
Di
##ákban
##oztak
##üst
##irod
##IZ
##edik
semmit
##partner
leb
##ektív
##mérséklet
##ezked
##airól
méter
akit
##annel
##ezd
felsz
##ászól
##imn
átalak
##enként
szórak
o
log
től
21
sár
##örny
mon
beállítás
kuty
mondani
tudományos
##amos
közz
megf
Egész
##TAT
Go
##ÁM
##7-3
##TE
lél
##hatóság
tudtam
##ugár
tük
sincs
##24
Ok
üveg
figyelmet
##anszír
##oltak
##arket
hány
##ora
egység
Hát
##img
visszav
klassz
##oglal
elsz
mérk
olaj
III
tudok
ágy
lov
kerék
stratég
##oszl
##view
valamilyen
##zések
##fejlesztési
##iklós
bíz
##biz
kollég
elé
amik
##uper
papír
Tal
##atikus
átt
jellegű
kedvezmény
##rán
káv
##olikus
tartalmazza
adni
kért
meghal
csillag
##usztr
##true
összeh
##ence
sét
konz
kérdése
ráadásul
mindaz
##ellát
195
##uzs
állít
kifejezett
puszt
üzemelt
áram
összesen
feleség
##vári
felszer
összek
hús
##író
##szabad
azóta
eur
várt
továbbiakban
et
##öltöz
##eltek
##IV
cm
##átus
Kész
##olása
##title
működő
írt
automat
197
kivétel
##ÉNY
akadály
##cking
aminek
##óc
Na
##ivat
imád
mellé
##ódi
órakor
Ép
formában
##ecsk
##0,"
##":0,"
főváros
2012.
##abc
x
##udapesti
csend
hétvég
##énnyel
##ekből
elismer
birtok
asztal
22
keletkez
Hely
visszatér
##cription
##rég
##adi
többek
Orbán
##bban
szerepet
szépen
karácsony
##etét
por
Szerint
##REL
##{"
Lehet
##channel
Szem
##pály
Attila
##avail
##inál
##ky
remény
##dönt
javaslat
lez
##available
##ózkod
##nyt
Lajos
házas
határozat
vállalkozás
helyes
##yel
rendelkezésre
##11
##ezve
gyermekek
##00000000
##ettől
súlyos
##aspx
ösztön
##EGY
##ezer
##description
látogat
tartó
##ésében
##unkra
csúcs
érkezett
##kit
kötet
##ategory
gól
##bajnok
##short
kevésbé
pillanat
lassan
##alan
##Code
fiú
közvetlen
##partnert
##logo
##guid
Hozz
AL
##Lead
##jén
tudunk
##ywords
Ott
##ávol
##author
##raf
##ATED
##category
tegy
##shortLead
adja
##estamp
sors
##ername
##5573
##632-4
##timestamp
##keywords
##":"/
##ffdb
##tracking
##367-3
zsid
szim
Pál
##:00
##RELATED
db
##partnertag
##partnerlogo
##partnername
##trackingCode
##isbrandchannel
vége
##ini
##isbranded
Igen
##onc
##orbrand
##isbrandstory
##orbrandstory
##szolgáltatás
##ux
inf
tagjai
##köd
mutatja
tartja
##.","
Hogyan
digit
tudnak
##000000000000
##úd
##00000000-0000-
##000000000000","
területen
##akkal
vezetője
##éves
194
##aid
folyó
(4
Szeged
idők
##áris
íg
szed
##22
Olyan
##ÉSZ
nyílt
viselked
##hatod
gondoskod
kérelm
települ
##játok
szabadság
szerepel
megszűn
tulajdonság
##idej
központi
kulcs
belép
##oztatás
##ova
kötelezettség
fül
megnéz
##US
hasonl
##udvar
eszt
táj
##erék
szeretnék
1,
hosszabb
##olják
valamennyi
##elemmel
9.
##urkol
melyik
Sch
##oduk
##ona
felfed
##cím
hirdet
##ennél
zene
##nyom
lemez
kivitel
##irály
női
vall
jelöl
amelyben
sejt
##gyal
közvetlenül
##eri
Szín
##bor
ily
megint
##ity
akció
Program
vállalat
levél
munkavállal
élelmiszer
##app
##úti
##pénz
Nincs
##ipp
##áshoz
egyszerre
##nunk
Bank
beszéd
részvétel
megőr
bíróság
Jog
messz
##jelent
szervezetek
##si
Balaton
##----
##__
##elemben
##ZAT
##13
##ítésére
##szerep
##erület
##okhoz
##jait
Budapesten
héten
tervezett
##órum
##):
##aik
vasárnap
##ekvő
legfel
60
##orral
annál
tétel
##kezelő
##átok
gondolat
magyarországi
##kér
##aján
megter
tran
káros
budapesti
##lem
2017.
Ami
##íd
(3)
érzés
szeml
tábl
##zen
##vé
##iskola
szakkép
##utas
oper
Deb
idején
##60
Bel
szez
kultúr
lek
befej
Milyen
##ttel
##ogle
Fej
##esszük
biztonsági
##ültek
##res
Könyv
délután
##odott
stat
döntött
##ünkben
csel
##uth
tábor
##magas
mindenkinek
##hetők
##ítését
Ör
##ovács
tőle
Tr
csütörtök
határoz
##ital
##őn
önt
Mik
##őknek
##ságú
szívesen
##IT
használata
##kett
rajz
##kezés
reklám
##olható
##erny
##urcs
hozzáfér
forgalom
##ásnak
típusú
Egyesült
The
##edd
kód
mérkőzés
##ÁLY
tájékoztató
##szervezet
##film
keresztény
##arketing
nyugod
Tanács
##ÉSI
##jött
gl
##akör
##ÉL
szal
eng
##23
iskolai
olasz
CS
##enő
##verseny
sziget
##man
ipar
##ókkal
felhasználó
##ler
színvonal
aktuális
jutt
segítséget
speciális
fizikai
korr
nevű
##ach
##olták
pénzt
világh
##orb
##hatsz
megúj
##erem
révén
használható
miután
elvár
Reg
##ookie
szolgáltató
úr
szempontból
hallgató
drág
lakó
zsír
menek
érvényes
színész
##össze
sos
megadott
##önny
alapvető
##ÉT
##elték
felügy
##otel
##képp
tartós
alatti
tiszta
##ségben
##állított
tartózkod
At
műszaki
##kap
kapcsán
##rák
##igazgató
Vik
##adja
dolgozó
Sport
kockáz
teh
##mar
ügyfel
oka
##előre
##forduló
mindkét
##széd
kre
megkap
felmér
##ikát
ugyanaz
megközel
használni
fa
##étek
kormányz
##elég
bolt
elmondta
Ahogy
jelentőség
##szel
Né
vád
képet
hozott
##sd
##foglal
tudás
hangulat
##ry
gyönyörű
ára
##ide
írja
amivel
##ítést
10-
##eteket
##ámp
személyiség
##iában
(19
körülmények
##ájékoztató
vonal
##ínek
kihív
háttér
árt
##újabb
##állam
Természetesen
apró
##ásokkal
konkrét
##zió
##csal
##ektor
##jünk
bab
megerős
##ain
amire
partner
zenekar
Par
bevétel
Debrec
elb
szeretnénk
has
fejezet
##asztó
labd
ingyenes
könyvtár
agg
##ásához
##ázni
##akter
doll
##TA
poszt
##},
köv
##END
US
időtartam
Társaság
láttam
anyagi
tartani
valószínűleg
feltételek
Kedves
kifejezetten
konfer
hivatkoz
szerzett
valak
##szönt
Egyéb
##ítve
##ászt
Ber
##},{"
alkalmazott
Intézet
##atikai
##uli
önként
##fehér
szegény
megoszt
ep
közönség
adatai
bemutatás
##ítik
##LT
kih
nyári
##atta
járó
##edt
##ányi
uniós
Miklós
##ráz
##SÁG
##co
##bevétel
5-
Műv
utáni
##ech
23
mondjuk
##EV
##acebook
##ettünk
klasszikus
##pari
adatkezelés
##Ez
tisztelet
szempontjából
##ozást
parlam
tavasz
feladata
feltét
##emlék
Szeret
kur
XX
legsz
##romos
##anyol
##biztosítás
megtal
##űrű
Tel
##ita
öreg
kelt
##öltött
##gatási
ko
neg
szeretne
buk
fert
##atni
##engyel
falu
látszik
tudod
választás
##ódás
nálunk
amelyeket
hozzát
zárt
##énél
##our
##ítottak
4-
##nom
##écsi
##fokú
##Nem
veszi
tudott
Tart
tudta
20.
Tehát
megprób
##fajta
##ionális
mad
##éshez
##olva
További
annyit
Mát
ismerős
mozgás
toj
##alkot
##álták
##ÉN
elkövet
Úr
##adat
regény
fénykép
Ház
##lel
##ságban
évfolyam
##tok
fűt
##part
##edet
##ey
azoknak
##akon
jóval
hum
alakult
tekintetében
##öket
##élni
szoft
##öngész
##zák
rám
##anci
hatása
196
bármely
Társ
=
##nevezés
feny
szil
##lovák
szomszéd
múlva
##edék
magukat
##icc
kereskedelmi
@
legújabb
előkész
látsz
http
##vesz
ural
##:0
##áltak
FEL
od
Nyug
velük
Unió
hiszem
nyar
EGY
##mint
lehetnek
##ation
megtekint
11.
Pár
##ázium
államp
Sajnos
hátrány
##imnázium
##öp
##program
##szol
##esztő
##MI
##rak
Önkormányzata
##álása
##ampány
vette
kényszer
parkol
háború
létesít
hűt
Nép
házi
réteg
##más
##ová
Erre
##segít
Q
##tör
hasonlóan
Alapítvány
tudomány
##lési
semmilyen
##mill
szerepe
szövet
##cél
Károly
##éti
Talán
kegy
##https
gazdálkod
képesek
jelölt
felismer
##oni
megszok
##magyar
12.
érte
##ezők
előtti
fürdő
egyetemi
Sh
##70
kiemelked
eddigi
##26
finanszír
Ár
##!!!
##esi
kiny
##edzs
Vas
szálloda
tol
időszakban
Th
rendszeresen
országban
##pót
##irtelen
##EZET
táp
ilyenkor
##apán
ennél
##ória
kiterj
eltérő
Fontos
rajt
Szabó
digitális
##tárgy
származó
kifizet
##zár
írta
állnak
érdeklőd
gyan
fellép
##ővel
Fidesz
##eivel
##45
##aradt
Rá
megelőző
##ekor
##ore
##védelem
kop
uj
száraz
##ilt
##szob
##óként
##hatott
##ikon
##iós
##íthető
Amer
##ezs
programok
##iszont
##ulnak
##ellen
méret
napig
##lu
vétel
negatív
##fut
előír
elhu
férfiak
engem
hétfő
##Egy
történelmi
sír
mennyi
megfelel
magyaráz
##red
meghív
hőmérséklet
IN
Felhasznál
Keres
##nünk
##áit
helye
megjegy
együttes
körében
Google
kilom
##eszköz
gondolom
AD
Világ
sebesség
##ze
szün
##pap
##ich
szót
##rajz
színpad
##élem
##aját
##szal
érdeklődés
##eknél
##ásait
##ww
áp
Bud
##ou
örül
kerülnek
##tál
##00-
##okba
évre
##eiben
##ozzák
egységes
Múzeum
nevét
the
Pl
Ind
alsó
valójában
##oros
egykori
berendezés
Gr
napján
Dél
##tatott
##www
##hegy
adta
bemutató
ült
minőségű
reform
jö
legfeljebb
minőségi
##lehet
előfordul
konyh
##nánk
gyakorlati
3-
##olaj
integr
abból
politikus
közölte
gyász
##perc
20-
##oljuk
étt
változat
Gond
##űl
##ana
fil
##lók
15-
klub
##házban
évig
rák
Kom
ellenőrzés
lenn
##...]
##kkor
számomra
böngész
ifjú
leh
magunk
##észek
ban
író
##igr
egyesület
Horvát
##ick
miniszterelnök
New
##nevezett
későbbi
##assa
forduló
kol
##gazdaság
•
##ián
##27
fokoz
SZER
##őváros
ellentét
##bér
nőtt
##olási
##out
Tisztelt
panasz
##etése
##éldául
gum
##erd
##ezze
vörös
függetlenül
előzetes
##nám
oldalán
problémák
Fi
ritk
##mis
##annyi
zenei
szellemi
dolgok
##ásáról
##ésű
##eszked
##emi
hozzászól
óri
Bél
fognak
pályázati
felelősség
működtet
kezdve
rit
koncentr
##oktatási
mozd
##árgy
valódi
##lány
##ográ
technikai
##ows
##kl
##pon
##AZ
Mih
##ign
menet
havi
##ct
ham
##ném
fiatalok
produk
pad
közzét
##tében
mindössze
anyagok
kort
15.
##sággal
szolgáló
##jék
Es
beép
##era
##lo
##íték
##aték
esett
Tib
elhunyt
varázs
##ésőbb
##ekszik
kutató
##atlanul
Kon
##gyűjt
##jaink
##osító
##történ
létezik
roh
pat
##ORM
##IL
##KÖ
határidő
-,
stabil
##hetett
bölcs
jelentette
kiadás
Var
elkül
##mét
##mutató
kellemes
kapcsolatot
megtan
busz
##ászati
öv
##evíz
Alk
##letek
##orok
##olyan
##ellyel
asszony
##ítsa
park
##árty
elképzel
##ÁT
IV
Nekem
##olyg
hiba
post
##ukra
##tön
14.
fesztivál
nyújtott
lep
##uj
erk
##örg
dip
biztosító
(5
dolgot
rug
orvosi
átlagos
konf
hálózat
Vál
teszik
forintot
18.
majdnem
##adása
##bázis
Rész
ww
##onnan
##biztonság
Viszont
##28
jövőben
tég
tanév
##őző
brit
tészt
##ájú
Kovács
piros
erőt
www
ennyi
üzenet
cookie
következmény
sikerül
folytatás
##ítették
##óth
##olgármester
##ádi
kedd
kutat
##kar
szintű
##almak
tükr
##járól
felb
szűr
demok
##áci
elter
óvod
elkerül
optim
elõ
karakter
tők
fejlesztése
Krisztus
##ításra
27
##ává
##itány
Duna
##eljes
hitt
##ünkre
szűk
##társ
kampány
13.
##epció
and
átv
általa
##irend
##sék
izgalmas
##epp
##elődés
##cz
biztosítja
Első
##ológus
csok
##esített
mm
##tus
szén
##álatos
'
##beszer
Mond
##iban
##UD
##alog
Zsolt
tanuló
mindegyik
személyek
Szövetség
##hy
##eltem
meghatározó
űr
ás
##szerint
egyeztet
##bum
##nes
térkép
fórum
következtében
Azért
lef
ben
##esse
##ezésre
##me
hirtelen
##éppen
bekezdése
Szóval
##ébb
##sok
kétszer
28
sosem
##ításának
néven
leggy
##sorozat
##ástól
Rem
Hung
Mihály
Év
oktatási
óriási
jármű
##sen
Gyermek
##ekció
fent
Rom
kidolg
adag
piaci
Nemzetközi
kettő
elektromos
rendszeres
##iter
pontja
##aiban
felmer
##??
dics
kissé
lépés
bán
hiába
##IR
du
##ash
esetleges
különbség
##ítjuk
szabályok
százalékkal
nehezen
##heted
##üd
életét
##IA
Szerintem
egymással
Pénz
##életi
Érdek
személyi
menü
##ákon
26
akiknek
##adta
különböz
komb
technológi
##titk
változtat
##ozók
##29
##ulása
##úton
##szerűbb
jelentősen
##ama
ajánlott
megtud
létszám
koz
##iatt
hangul
kilenc
##kötel
##ítások
##szervez
##oszk
##gyógy
##róf
biztosított
##társaság
befog
nyitott
GY
##olnak
##szolgál
##48
jóvá
##kat
Vár
##hivatal
tartalmazó
##div
szállás
kockázat
szülő
részes
##adalom
vevő
##inni
hamarosan
Mária
[...]
##viszony
##eret
2010.
PR
##oktatás
tanulók
Eh
19.
megvan
##nel
##seg
kiprób
fár
régió
Imre
eb
##moz
cip
élni
##ger
esk
##rit
##ipari
dolgozni
várja
##jal
mindennap
##járt
##óst
dolgokat
kék
##ART
##ulajdon
levegő
##AG
Sem
megkérd
felel
intézmények
##kó
##attak
Ex
Község
vásárlás
##eire
##ésnek
##ómai
Kat
inter
Hasz
Pedig
##aira
részletes
##oy
##ice
##avas
hazánk
##atokkal
vehet
eső
évente
bíró
velem
##cser
elhagy
##ázott
szüksége
##amb
##ettük
kiderült
kínai
35
vigy
vajon
##uni
##ásról
##rium
disz
##von
ugye
Ph
többen
üzen
Győr
16.
leny
##huz
marketing
##ian
Szil
##rol
hajl
sért
##UL
kén
##igény
##ikum
##eiről
beszámoló
Ekkor
##csökk
##für
##igazgatási
##opp
Bev
##párt
bevon
vizet
gyök
90
##ösen
##!)
tetej
##omban
Har
##ti
itthon
##ket
##ENT
címe
vallás
Kap
##lők
21.
látja
##osszabb
##atát
##fin
Viktor
##atja
ingyen
kő
bont
eredet
bármikor
##eve
dolgozik
százalékos
talaj
##ódnak
Majd
##émia
Király
velünk
ettől
##ica
temető
hétköz
felsor
elszám
kaland
##ásoknak
##városi
repül
##vei
terméket
innov
##csk
meglát
vastag
##esítő
##élemény
élett
kezdett
Erd
##ozták
##egnap
cig
##ókusz
keny
állap
##élés
vitt
tudatos
80
nyilvántart
menni
rögtön
kamat
##ságra
Ehhez
kérjük
##áng
eredmények
közösen
##ros
megköt
elenged
##hid
éven
##iság
városi
##asszony
szóval
olt
##ötte
gyakorlatilag
Hol
érett
mindenképpen
##Ha
büsz
##lek
azonosító
##eid
kellem
##ibb
##-)
uralkod
tartalom
megoldást
iránti
interj
all
nevet
szülők
tetszik
##remű
különféle
elért
##kapcsol
parancs
irodalom
MEG
támad
##EI
viszonylag
##olcs
kívánt
hatással
##EST
szolgálat
##ítanak
foglalt
##eszi
##szent
##uha
##választ
sokáig
TV
##ge
megrendelés
megszüntet
helyiség
hab
rov
##cionális
0,
##35
Szabad
##OD
címmel
##AGYAR
##ásokra
##fogyaszt
##essé
díjat
ler
2,
##ázó
kapu
##jam
##tiszt
beszélt
ezáltal
rel
##izál
gondoltam
##EP
korában
udvar
##éh
nyugati
testület
##ákra
8-
túr
abba
színes
ezúttal
massz
##attam
##talanul
török
lehető
(201
##őj
##helye
##hessen
##áss
világban
választott
##szeg
Közép
téli
szabályozás
##ight
segíteni
tél
információkat
fagy
Lak
olvasó
##eksz
##asonl
plusz
garant
bennünket
megye
##ohány
aktiv
kárty
##;/
##!”
egyelőre
Gyula
##központ
szuper
fajt
ipari
életet
értek
beav
din
reag
##leti
##áján
##ségének
kaptam
##ességet
költségvetési
Béla
amúgy
##vásár
ideális
##ozs
káb
Bék
##JA
fejlő
kicsi
##ödik
fém
##49
##értve
valamelyik
mindez
##ella
##ációja
külföld
Olvas
ti
30-
ob
##különb
##levél
##ételt
link
Főváros
magának
enyh
##üsp
La
Pest
bonyol
nagyjából
pub
6-
kan
rendszerek
##ossuth
500
nyilvánosság
##kinek
napot
fak
##enny
támogatást
Iz
##leked
edzés
Hír
negyedik
példány
látogató
##rot
immár
Budapesti
némi
könnyed
doboz
Közös
##rab
##ea
Lát
vak
Hon
##ukor
ahogyan
##emp
##endszer
várak
Car
ígér
körben
bot
isz
##IX
olimp
##ogó
##háza
##októl
##indows
úgynevezett
##gé
##harm
heti
##szög
megvásár
##öngy
##képzés
Tóth
##ressz
##ever
(4)
kerek
rang
szerd
Any
17.
##keresked
szeg
akarja
szür
nincsenek
##eljük
válogatott
közepén
##ala
híres
hatására
Fr
Facebook
érzem
##járás
##íni
Cl
Sim
vettem
##ergia
legut
letölt
##ügymin
játszott
bejár
##üspök
##állító
megalap
tudós
verzió
szeretné
szervezett
##üly
teljesítés
fizetési
intenz
biztonságos
##mind
katonai
bő
##ászat
##th
##helyi
##áruház
foglaltak
érzékeny
Néhány
körülmény
Tisz
szoba
##AV
##ikában
##agn
mégsem
##éseit
##atainak
kijelent
##ASZ
közlemény
##óba
részén
##ÁSI
Mikor
pozíció
szar
Figy
száj
##mát
##ác
##álunk
legyenek
adóz
életmód
##otó
##tük
elvesz
rajong
graf
hű
hős
repülő
forintos
Pet
Balázs
lépett
szállod
##azin
kerültek
##nának
##oli
céljából
##egyetem
Mindez
agr
látom
Kormány
##szolgálat
##usi
erőszak
köztük
##cel
múzeum
élete
kényelm
vezetett
##óf
Minisztérium
méretű
##mos
MAGYAR
##terv
eltávol
rendkívüli
villamos
Eur
##ázás
román
hullám
##ellel
Kult
mérleg
megnyit
##forrás
##techn
mult
##asi
jelenlét
##éje
közelebb
Egészség
Kossuth
Jobb
##áld
Hi
műanyag
##ereség
százaléka
szel
amiben
magatart
napos
193
bát
használja
kéne
alkat
sikert
állomány
##testülete
állampolgár
##belül
feszült
##geli
##kert
kezdeményezés
szigorú
határozott
magyarok
##játsz
##ítók
folyt
betart
Ebb
szezon
##piac
sugár
példa
erdő
##edő
##terjeszt
megegy
70
##arúg
diplom
embereket
megtalálható
cégek
Tibor
##iber
Végül
##helyzet
##ításához
##get
##XII
NY
fogalmaz
egyén
művészet
##aknak
alól
##helyett
megmutat
helyzetben
##mán
##="
elny
##oztam
tanfolyam
átvétel
##dvöz
##echan
##menet
##ancia
értem
búcs
téma
négyzet
Rák
költöz
##elekmény
Miskol
##jav
##RE
##pát
kiegészítő
rendező
egyértelműen
##46
felejt
életben
##szerte
főz
y
##ényi
##pedig
##ításával
Inn
##három
díja
##sük
előfizet
gyártó
##ilk
érkezik
##alista
ellenzék
kiderül
##almát
Élet
alkalmazni
lámp
##ary
net
##omi
##sziget
—
évad
Web
igazol
esik
mielőtt
##zséb
Lev
»
kultúra
Fran
sziv
őszint
képek
##lése
csatorn
megkez
tab
forgat
szeretném
##rog
lemond
munkaerő
kapta
000
##ciós
##ülnek
ismeretlen
magunkat
veszélyes
Arany
Üz
##erk
##állt
nézve
embernek
utat
album
csinálni
##anta
legjobban
##jet
felép
TAN
##ítan
mostani
glob
##EF
##jától
##gazdálkod
45
##erceg
!
tartják
##nyug
megcs
##AJ
görög
##nép
bes
##med
##prof
##ire
alapító
Gal
Ág
erősen
##ísér
##ipar
tökéletesen
##del
tekintettel
értékelés
értelmében
áron
##beteg
##őnek
ök
##top
értesít
##ars
elől
komplex
kocs
kommunikáció
##\"
feles
##ájára
##ump
alkoh
##kezelés
pénteken
Ugyanakkor
##orl
Azonban
összefoglal
messze
##gondol
##ősen
OK
fell
horg
recept
baleset
amiket
látott
élt
##ekr
edző
közremű
alkalmazása
kétség
végére
##Meg
hatalom
gyalog
kórház
##áson
innen
párhuz
mindennapi
##rag
fejlesztési
étkez
katolikus
##álva
alapanyag
##igur
eltűn
fölött
kilát
érdekel
##óni
védek
kapcsolatok
videó
Először
rendelete
##oth
vi
megszokott
szánt
története
elegendő
##ahol
rendszert
##avart
##áknak
tál
##orrás
Aut
##ota
védő
fele
nevelés
segíti
##adók
Med
kezdődik
##ezhet
##onst
írni
feltétlenül
##atika
tür
Mad
##xt
##álnak
húsz
##nénk
korszak
?
programot
Aján
##íróság
szoftver
értékesít
##süt
##ságos
##ságok
legend
szólt
akk
Intern
péntek
NEM
##álják
testvér
elősegít
lehetősége
##ozva
lehetőségek
épült
##ÁZ
Víz
##donság
Volt
##barát
vicc
dátum
##/1
##nyék
feletti
köszönt
Át
jelenik
csodálatos
szállítási
##éteres
vállalkozások
kérdést
##6)
munkáltató
lezár
##tori
##egyűjt
##ölni
##38
sar
##osszú
valahogy
bekövetkez
##örög
##ada
létrejött
Ám
bejegyzés
épített
szemb
államtitk
##cc
többség
##TV
##élyi
##ásai
hál
Inform
na
táplálkoz
##ihar
építés
biztosítási
elérni
sajtó
Joh
kizár
##ességét
soroz
megérkez
##jába
ábra
Hisz
mindkett
##fény
érintő
##ükben
##alit
komment
##elme
##magasabb
mez
kezelése
útján
7-
terén
Orosz
ellenőriz
##ofi
éreztem
tudatjuk
lakos
Akad
##felvétel
világot
színház
Test
Csal
2014
fejlesztés
Ráadásul
##47
világon
VI
##enyi
fegyver
szolgáltatást
2009.
ger
kimond
Ezután
Horváth
kes
erkölcs
##ensúly
használják
##éria
biztosítani
állapotban
alapú
tudsz
ábráz
írtam
##OTT
Csaba
##atórium
##ival
##roll
mást
elfel
Windows
megállapod
professz
szakemberek
300
karban
pot
##eltétel
##vállalkoz
##csat
életében
korszerű
látogatás
eljut
tájék
##lin
feltölt
Törvény
állatok
29
megfigy
##dob
kérelem
esetekben
kifejezés
rendben
rendőrség
##ÁNOS
pálya
##ror
##inte
##prém
kivált
##önk
meglévő
##ektek
értéke
##oxid
igénybevétel
2014-
szabadon
mondom
természeti
szokásos
technik
##testületének
ütem
bárki
beavatkoz
##omó
##zsébet
##arch
##ebbi
részéről
##omba
ítél
dolgozott
kapnak
naponta
visszak
##icit
##ereszt
félre
##El
hölgy
##árok
kos
##otok
internetes
##kát
Ben
Szervezet
ugr
Cél
##UM
##nod
adomány
##ódni
Él
fogják
jég
diákok
főszerep
##obban
szerepelt
##zus
##utal
kup
feltüntet
##esett
##izált
##ájával
mû
Néz
Kérjük
##RA
rab
fájdalom
rendelt
##RÓ
adatait
Hal
törzs
eredménye
Vesz
##éta
maximum
bemut
páros
Re
lő
fogva
##ülek
##óv
Kiv
csont
információt
##rajzi
Szép
kiegyen
egyensúly
Oszt
##ÜLET
Szabály
függően
##ítt
##olland
MSZ
##beszéd
##einket
##orna
kitölt
órán
##udit
áldoz
városban
sk
##mit
##irk
##atokat
##éch
öltöz
##**
formájában
spanyol
kiránd
##ulladás
kiemelkedő
drám
##ellenes
figyelmeztet
##szül
számtalan
##ood
tanult
##élly
hozta
megteremt
##szert
##isebb
mostan
##akadály
##-1
felhasználók
forgalmaz
folyamán
igényel
ly
előtte
##ternatív
hüly
nyáron
pihen
szál
gyom
##99
##tartási
Gerg
tavalyi
munkáját
##ülni
Jelenleg
elveszt
tagállam
tekintve
statiszt
##Cs
jövedelem
##ömb
történelem
##ózis
Kiss
döntő
##ékek
kikapcsol
legmagasabb
##...","
közelében
kialakítása
##árműv
furcs
adatbázis
##tudományi
aránya
közeli
számunkra
gal
önkéntes
##száml
MTI
összehasonl
##szerkez
véget
##43
kielég
pol
##haszn
résztvevő
vezetői
##75
voltunk
email
##iaszt
Európában
##anyar
Korm
fran
##2,
##lása
okozott
megbízható
napra
emiatt
ellátás
##becs
észak
személyesen
évet
##eld
##úk
##VIII
##fejlesztés
érkező
országok
##személy
mutató
munkanap
Kín
római
##irodalom
tele
##arkas
konferenci
Park
félév
##iny
##arnok
másodperc
##cső
nyak
kiszolg
források
Szerencs
szerz
Köszönöm
##nák
színek
támogató
Miután
##osi
##vert
magában
##ara
kezdte
##ate
##opron
ch
időre
könnyebb
felszín
##örtön
##ecskem
főt
rob
útmutató
téren
##pel
legalábbis
##Nagy
##oknál
##zésére
lat
szombaton
tüntet
helyszínen
fizetni
rez
problémát
Emellett
rendelés
SZAK
olvasható
Szoci
ún
kötő
visszaj
ös
betegségek
szenny
REND
dollár
mikr
szeretem
megfogalmaz
2013
lélek
Debrecen
édesany
##ret
alapvetően
komolyan
bocsát
valamely
Tag
##bal
utcai
részvény
##KOL
##XX
műt
##húz
##zon
##der
média
##ament
alternatív
tanús
%-
##rág
##RT
Szerződés
gát
hatósági
vonz
nemrég
laz
ALAP
##osta
korosztály
amint
végső
##apasztal
kutya
kilométer
##sav
folyamatok
Oper
kezdődött
##ordin
évforduló
--
##berg
##ellig
kezdet
##éllyel
válság
egyetért
kiadvány
írásban
##95
Önnek
ek
##ozások
születés
rosszul
kg
Áll
válassz
2015
alv
vizsga
visszavon
ék
Katal
elégedett
ebéd
lehetetlen
másfél
közlekedési
Foly
##odat
igazgatója
##okk
##unkon
Széch
asz
22.
zsidó
##zuk
##ménnyel
##viteli
##gyárt
##gar
piacon
megfizet
hozza
##ségeket
küldött
##tető
tantárgy
többsége
##esnek
kever
vékony
Ham
szől
##puszt
Három
##eviz
világbajnok
##:3
EN
nyilvántartás
munkás
kedvező
##érdek
##védő
rózs
eladó
vacs
##CIÓ
televíz
##öb
megakadály
vonatkozóan
kreatív
mért
##üveg
##ezését
##itek
##évé
Erzsébet
védett
##azás
bút
dohány
##land
##korú
obj
##inkat
##tartó
elutas
##fit
Pécs
változások
##hasznú
##angél
kif
gépj
érzi
##kult
Emlék
orr
nyúl
##áték
feladatokat
|
##hetsz
##vad
##jut
nyelvű
##őkkel
férj
térség
No
község
##bol
##atra
másrészt
kifog
beáll
világos
fia
##ártya
képerny
rugalmas
minimum
kezelő
##ászár
jók
##ovjet
mezőgazdasági
jóváhagy
teny
##ennyire
##85
órát
sorban
##lási
##ozását
felhasználói
Sőt
automatikusan
TER
következik
beszélgetés
##illa
passz
Rég
##eszél
##jegyzék
##SZÁG
##apor
##sztikus
##attart
##fia
##yás
##őtlen
rájuk
öl
terep
##65
des
kerékpár
támogatási
krém
konflik
újdonság
koncepció
olcsó
##BEN
módja
husz
##hiány
##anapság
##űnő
##ségű
nyilvános
tűnt
##LET
útvonal
##ner
költségek
meghall
##politikai
##oszlop
ugyanúgy
##edi
##eletek
előterjeszt
dom
##esebben
Francia
##ELY
rendezett
##eredmény
ve
##eztük
adós
környezetben
##ESZ
melyben
kaptak
##telenül
futó
Mér
##helyek
menedzs
alacsonyabb
fajta
##aktív
##émiai
vásárló
polgári
nyaral
működési
összev
kényelmes
színű
véve
Man
ágaz
harminc
##itor
##rát
##rik
migr
##források
segéd
fontosabb
elképz
divat
próbálkoz
tetszett
maradék
többé
elismert
mak
pedagógus
játszik
információs
pontot
löv
tájékoztatást
##ola
##":"2019.
beszélget
##szeres
##20-
láz
transz
##örnyezet
Ír
##...)
##letes
változatos
csill
találni
##ászok
##ságának
Pály
szemlélet
hamis
Ge
##ulátor
##ikailag
–,
mindenkit
kapac
megállapodás
napokban
életének
##frast
építési
ismeret
##ÁSA
##UNK
világháború
szerkezet
címet
kíváncsi
pre
tág
méltó
##TER
##ításában
Érték
Színház
##ath
Mon
befektetési
mennyiségű
használatát
##ekbe
##díjas
ADAT
épül
fogyasztó
##ítél
##század
működését
Vállal
##csomag
értelemben
miként
gr
leírás
utazás
elrend
##":"2018.
ennyire
mág
leány
biztosítása
##szoba
abszol
elmélet
##burg
ló
emellett
résztvevők
mosoly
sör
technológia
végző
társas
##hálóz
amin
költsége
önkormányzatok
árak
ellátott
futam
ezután
##ulását
2010-
dur
##level
Tudomány
felek
alkotmány
hatályos
rokon
irányuló
érdem
##frastrukt
kívüli
Tám
sérül
szerelem
összefüggő
##irdetés
##isk
tevékenységet
jogviszony
31-
többnyire
elnevezés
mem
terjeszt
régen
##are
adnak
##oldali
##éséről
##echn
normális
##astély
##fesz
Dok
esküv
eltelt
##öttem
ital
páp
kerest
foglalkozó
2016
adók
befizet
##\/
elterjed
melyeket
tü
##hát
cent
3,
területek
veszélyeztet
##atók
##õk
foglalkozik
##ességi
trend
tilt
##ABÁLY
kocsi
reggeli
##iségi
események
##úny
On
figyelmét
alaposan
Kör
##onként
stressz
temetőben
onnan
alkalmazás
##uss
##TM
vonatkozik
környezeti
járul
kivéve
kérelmező
úgyhogy
av
Vannak
kérdések
##ekkora
minimális
japán
##2)
##olók
##fogó
lettek
##udományi
##ZŐ
##iskolai
ősz
25-
könyvet
ásvány
Eszt
Kál
tek
eldönt
matem
##tári
kellemetlen
tv
##tovább
##edek
korai
##olást
megjelenő
##evés
ráj
támogatja
##nyelv
##eleg
területi
Árp
meglehet
##Magyar
Bor
osztrák
vendégek
legkisebb
##viz
Ebből
akiket
látta
találtam
kitart
##ESZT
2010
akartam
motiv
##lást
hav
helyét
élnek
áldozat
Hotel
beszélni
Egyház
OR
szünet
strand
##sereg
hozzánk
előz
véletlenül
##TATÓ
amelyik
##:5
Eng
##ereket
##elődési
##akarék
labdarúg
BM
alkatrész
Ellen
Óv
ra
rát
egyrészt
érzelm
gon
##tatni
szerződést
##akrabban
eléggé
szeretettel
##ségnek
kislány
nyelven
Pal
órás
fotó
##felület
adatlap
##tette
##élő
##anna
##jei
##művész
elsőd
##BB
strukt
Haj
##erte
Anna
keleti
mondott
Észak
##közben
##mot
hajó
szakma
ütköz
##199
amellyel
déli
##nének
parad
far
##különböz
életre
mentén
megszól
##olom
testi
##édia
##égzés
alapja
25.
képző
üd
egyedülálló
kommunikációs
kincs
napirend
tevékenységek
Fejleszt
##TK
##gő
##ozd
##művészeti
végéig
Rob
##abd
legszebb
hozzájárulás
drága
##1,
percig
##ball
##one
##adást
mas
Egyébként
börtön
szokás
##lang
##idejű
##oldalú
nyilatkozat
cit
Sokan
York
Mindig
isten
##ss
sajtót
nyelvi
legfőbb
helyezked
körüli
következtet
kataszt
##váj
Ab
gyár
##1)
rádió
bennem
kihasznál
##őre
kiem
szeretnél
##ulást
alkohol
cikl
végez
24.
##ények
körű
##eml
lelkes
versenyző
szabvány
szög
##ezető
##ességében
mechan
körülbelül
##nevezése
##fáj
feltár
ritkán
parlamenti
##ésekkel
számukra
MIN
teráp
alapuló
hirdetés
##DP
Köszönjük
összhang
okos
##idéz
Mély
##helyen
##IM
Például
illeték
kézzel
vettek
hajlandó
belüli
szervezeti
elemzés
kávé
##édi
ezüst
pi
ür
szerdán
kibocsát
##MÉNY
##váltás
Katalin
##szerek
Széchenyi
##ukban
Haz
kapható
##bolt
1/
##álok
szabályzat
váll
álláspont
nézni
USA
támogatása
##letet
amilyen
változó
##anyagok
elment
ügyvéd
Tárgy
##özpont
##lemez
##esztés
2008.
##vidék
Munka
%
##alitás
##:)
üres
nyíl
kombin
##latok
ítélet
##inél
##IG
segítő
érvényesít
Un
2016-
2013-
##44
ismeretek
pinc
fizetés
##entő
Nos
##hét
##ítással
##ons
célra
betölt
##kező
##pe
aláír
23.
##git
##uty
##õs
megd
hétfőn
Felhasználó
értékű
zuh
##89
ismerték
emlékeztet
megkeres
nar
védelem
bez
##ségre
klím
##áram
bátor
készíteni
magával
köszönöm
Árpád
##essen
anya
rendelkezésére
képz
írásbeli
2000
teher
szexuális
szombat
##arak
hozni
nyers
##amat
főként
kettős
elfoglal
hátsó
cigány
EM
elfogadott
Vel
Koll
ránk
ge
bánt
##ességgel
önmagában
Azon
##onyi
funkciók
##költ
vír
elolvas
##olnok
csapatok
fogok
##shop
##BAN
csütörtökön
##jogi
##rác
##jához
Mat
legközel
##éc
##ettó
mindenféle
11-
Varga
előírt
(200
püspök
##ORMÁNY
elhelyezked
hibát
ik
Nyilván
gondolkodás
##közép
induló
rendelkeznek
##dám
konst
kedden
közbeszer
seh
##ÍR
diagn
változik
helyén
Tartalom
16-
Nov
hivatás
Idén
sark
36
Gimnázium
nagyszerű
bill
azután
maximális
##kák
sorrend
kiadó
##alg
BIZ
fejlett
##ilatkoz
jönnek
nagym
191
Verseny
nevében
sm
minősül
##eth
##rep
150
dinam
30.
##etr
##EC
Jelent
hiányában
bizonytalan
##szór
Biztos
2015-
művészeti
##hatékony
##iról
bemutatása
tegnap
mozog
veszteség
ÁLT
##--------
alapítvány
csoda
MSZP
gyülek
intenzív
tartomány
hihetetlen
2017-
##asztott
párhuzam
híd
oktató
izom
olvasni
bármi
Ilyenkor
tenn
ÁLTAL
##lass
IP
háló
##aja
lengyel
##megy
##tes
##odó
dupl
sajátos
##hozatal
amelyen
##ótól
euró
##ezent
Gazdasági
megenged
napjaink
mára
Bizony
tartalma
éjjel
Zsuzs
műfaj
globális
##ıl
cseleked
közigazgatási
##feldolg
##név
illetékes
filozó
##au
##ZET
értékes
felaján
##abilit
tiltak
##ulta
összege
##ményt
rendelkezés
jegyzők
Nyír
nyugodtan
Mart
helyezett
##olf
telefonszám
adatkezelő
énekes
betegek
##ükre
tájékoz
##itthon
##ELL
##ősebb
##egen
éjszaka
Jól
##yű
##33
elad
##NI
2012-
tényező
##család
(5)
váz
Hét
Ref
regisztráció
##7)
sűrű
hig
árfolyam
liszt
illeti
változott
kivon
##kék
úsz
munkakör
néző
##ee
termékeket
megp
##SZER
telt
Fehér
##els
ismeri
##atty
trag
akarnak
raktár
tartanak
Fog
akarok
folyadék
##ue
##osztás
##ttől
##asszal
folytatott
étrend
átlát
áruház
építő
században
##ködő
alkotó
##OT
Ember
##88
tartom
##kány
emberiség
pályán
##olhat
##bi
##profit
elfogadás
csapata
ismerked
potenci
##papír
12-
##EJ
Vissz
Használ
deb
figyelem
sh
##üssz
garanci
top
kialakult
Való
összeget
fejl
##vitamin
##kedv
máris
##ubb
karri
##eiket
csaknem
##elését
záró
##ÁROS
##AC
fordult
mor
kora
rosszabb
##/20190
felszám
megyében
##":"20190
##érzet
kiind
gyenge
politika
Ezeket
##ésen
infrastrukt
utcában
árnyék
lista
##eje
##itu
kiválasztott
##kötelezett
lennie
olvassa
##ítésre
Mich
áttekint
okozta
##essék
szakm
2011-
##jében
##41
láthat
herceg
kiadott
kab
javasolt
Éva
##harc
##vélemény
##anya
hónapban
bolyg
##alizmus
számát
##jével
immun
;
áru
Segít
idősebb
##riss
méh
##legesen
33
indított
kínálat
egymástól
##iben
##bert
##bej
##bem
elfelejt
##szerződés
Ádám
##no
képvisel
##ams
deviz
##adalmi
tip
közlekedés
mutatkoz
vidám
állomás
elengedhetetlen
karácsonyi
kiszám
meglepetés
juttatás
Szék
##park
##fest
##amara
hétvégén
rendszerben
intellig
teli
szívvel
nappali
##szár
pillanatban
teng
anyagot
szán
##sá
elkészült
publik
kapni
tervek
Termék
##ésekor
Arra
lebonyol
hí
##ser
Hall
játszani
Szomb
pop
##díjat
ellenfel
rögzített
##dög
Som
##méter
délelőtt
Keresked
##!"
##hettek
KÉP
kompet
hátra
##);
##élked
intézkedések
anélkül
megind
terror
2012
hatáskör
felfog
kortárs
9-
filmet
##bizony
sérülés
megjelenik
modul
kutatási
Köztársaság
valahol
32
##ásokról
kivételével
gyászoló
tevékenysége
Pető
fant
őszi
Márt
eredményt
##kon
lend
##függ
Válasz
meglepő
profi
hajnal
ebbe
Tur
fogalmazott
##figyel
tipp
##kg
##emre
##kárty
##VII
ügyben
tartoz
Veszprém
másol
##európai
mérnök
magára
##őről
##abda
eleget
vállalatok
##áljuk
##ópály
##jaként
nyitva
költségvetés
iskolában
##odra
##ise
1-2
fogyaték
##MS
települések
esti
##őtér
felelősséget
abszolút
##erű
felszerelt
beérkez
Bib
hallgatók
##ater
dag
KI
##ítők
véleménye
Miskolc
CD
támadás
megér
szereti
rett
Könyvtár
környékén
blok
helysz
:-)
Kapcsol
sáv
##kő
lejár
##ania
##ükkel
bűncs
eredetileg
div
##hull
kijelző
Fél
kezel
szokott
##ózás
határozza
fék
nyilvánvaló
kiköt
##ásainak
##osak
jogok
felülvizsg
01
régóta
Kulturális
##mes
vidéki
kattintva
ugyanolyan
nevelő
levő
hatású
##ativ
polgár
játékot
ton
só
Osztály
alul
##ácsi
északi
##ETT
webáruház
nyílik
##hő
##OLG
Nev
##nyomás
vizsgálatok
##vó
egyenlő
fokozott
##állítása
##rád
##ográfi
kérni
nálam
##dok
médi
Vásár
##örök
bizonyíték
##észett
##nyira
nektek
##hatalmaz
Ismer
##nyilván
tartotta
si
’
##így
31.
##76
Pa
rendelkezések
tehetség
Együtt
oldalt
2-3
Olasz
##viv
szlovák
TÁM
akkori
értékek
megismert
utólag
koordin
nyel
kutatók
Békés
pak
Mic
fájdalommal
##vitel
##számú
tulajdonképpen
nincsen
családok
##ÁLL
##tani
Amit
szomorú
érez
Annak
extra
fl
mondtam
##illi
##orit
megtiszt
erősebb
vitamin
ügyintéz
##spir
mondhat
##ürg
tanítvány
távon
használatával
Ah
honlapján
kerülő
kérdésre
szépség
##telj
##kiv
Moz
##ikája
hé
Hab
##állási
várhatóan
##ekrény
##kom
##használt
##86
választási
##gát
gyakori
gyűl
alkalmazható
Hajd
##fort
##sport
adtak
##millió
bármelyik
##hall
##dí
mondják
tavaszi
##uny
##ásokon
gyűjtemény
##ulmány
##TP
##Ft
##íthatja
profil
##meneti
prakt
##asd
vezeték
megad
##ike
akkum
ébr
##egyes
várják
mértéke
érdeklő
Igazgató
könyve
kamer
alkalmával
változtatás
##ili
##emmel
hangsúlyozta
John
olvastam
virt
##izáció
alud
Kal
##telep
ost
##ÁK
poh
éri
fiók
jelentés
##gyűlési
##udi
dug
fogom
##ren
##apja
könnyedén
##marad
##kereszt
kapunk
kv
##ásd
##ulhat
##antasztikus
olcsóbb
##sza
##szerkeszt
2011
Lond
szárny
##79
##olok
##pótlás
##esti
##ONT
##ítjük
31
hábor
14-
hajlam
készítés
évszázad
##elések
##ASÁG
##állomány
irodalmi
mindezt
szerették
##edni
jogszabályok
egyházi
vasút
##ness
táblázat
Idő
##zá
Környezet
##ikák
##óczi
##gáz
ilyes
emészt
##biztonsági
valakinek
##ace
Andre
megtört
bőven
##szerző
ÁLTALÁNOS
mesél
hiánya
##szál
halott
kihagy
##ovics
##unknak
##üld
számot
házasság
folyik
tekinthető
Ügyfél
##ánkat
##edelem
kisgy
##anélkül
LE
pál
titkos
kilép
terve
autók
ív
##etlenül
##ratikus
##PS
2018-
ötödik
lehetőségeket
sík
lánc
##minőség
##onok
18-
pil
##üh
Ver
##olnár
##olgári
vesznek
##áink
##szky
##ement
##iratkoz
,,
távú
megkönny
Érdemes
##biztosítási
4,
##údió
##uma
##ure
Szociális
ejt
190
Városi
##bank
Intézmény
lop
pénztár
illetően
kialakulás
címen
parlament
Hiszen
fekvő
Gar
értesítés
napok
##ucc
jelzi
szörny
##attan
foglalkoztatás
Nyugat
fen
századi
##izni
forma
függvény
rej
simán
##ottan
amiért
döntést
Fl
##ítsd
##ÁV
##ályos
évében
szakértő
domb
játékok
elhatár
fogunk
hatást
felől
##alát
##even
Antal
##verz
Est
2017
munkak
várjuk
ellentétben
forró
bels
400
##ozásra
Pat
##zését
belől
joga
dik
Kics
atom
##ite
értékesítés
App
közgyűlés
##ánya
ritka
láng
titok
meglehetősen
egyfajta
megtér
##ítsuk
##........
##ID
tették
Dun
##árium
kezelni
végleges
##őtől
Kezd
##ozható
##oztató
feladatot
felügyelet
##Gy
##ans
srác
##cium
legr
informatikai
##icsom
szerencsére
ÖNK
bul
szélső
Mindenki
##takar
Tim
megnyug
git
közterület
átadás
##zött
mand
##ley
Javas
##hír
tönk
Bárm
Ők
egyidejű
extr
##ozzuk
fős
##onprofit
helyzetet
21-
trén
Forrás
##-9
##ulási
Szív
##eződés
nevelési
eszembe
adatvédelmi
##lót
##ítottam
interneten
##42
Klub
##ezetés
készülő
##iberális
tartoznak
##obbant
musz
##száma
remél
készlet
Ang
stílusú
iroda
##álék
fenntartható
ügyvezető
forradalom
##39
elsaját
##31
interjú
valaha
jelenség
##ÍV
Port
lényeges
##nevelés
##nökség
##vebben
tettek
Polgármester
##Mind
dolgozók
miszerint
Játék
##őzs
szop
Mari
##vál
vadász
okozhat
észl
##fo
##lettel
##fürdő
cserél
közepes
##alább
##minisztr
államtitkár
Németország
tudták
vezette
ef
törekv
furcsa
##láb
tű
összefog
sütik
fejlesztések
rendes
burkol
##ukkal
felesleges
##ko
hatását
##/20180
termelés
munkája
192
füst
##emok
elemek
##esíti
szag
Gergely
elsődleges
fennáll
ünnepi
összetett
##ÁJ
kereső
hip
óráig
##isztikus
tagok
##elefon
Kárpát
Géz
##iák
##ulva
készen
örömmel
eljárást
élményt
##put
jövőre
Egyszer
##raz
##özi
elbír
dolgoznak
##":"20180
##éstől
Önök
prot
##semmis
hibás
rock
Akár
##anda
illetőleg
##aidő
foglalkoztat
felvon
kialakított
tudtak
##ORMÁNYZAT
##SG
##mozg
veszik
irányba
Hang
nyomán
param
veg
Kol
téged
magánszemély
megszervez
vízzel
##?!
##ÉTEL
képzel
22-
##ugy
##ous
méz
##its
cseh
torn
nettó
hatálya
##jatok
sztár
képzési
24-
##olv
bekezdésében
19-
##műves
Szakmai
hárm
káp
##iga
##hont
szilárd
gonosz
hozzátart
13-
lényege
időpontja
hírek
Gyógy
kritikus
Rád
önk
##rukció
egyenl
elméleti
mindannyi
gépjármű
Cím
##ÉD
szembe
##erre
Tudományegyetem
##tad
jótékony
gondolt
energiát
Közben
##égium
kijelölt
megoldások
érv
ajtó
##kocsi
konyha
##ábl
normál
kosz
mutatják
##dor
életünk
kinek
##essük
Műszaki
Judit
##ÁCIÓ
##eves
17-
célok
Gyakor
magazin
##ELŐ
Tanszék
előadó
##arap
szik
lit
vaj
##ilkosság
Els
eléged
kint
technológiai
Cég
##bl
fertőzés
zajlik
homok
keresni
tisztában
képeket
hiányzik
alkalmazkod
leszek
lux
képen
Bi
Vidék
End
eredményeket
negy
Lengyel
tettem
állítja
szemmel
újságír
készítmény
szereplők
##képes
##ozására
érhető
##kás
homlok
időtartama
#
szurkol
##hattak
tűzolt
nevezett
##jukat
kontroll
származik
megváltoztat
munkanélkül
jöttek
elkez
##mester
Bak
1000
szavak
egyike
menekült
##álom
##oid
sug
##jek
##hitel
##jöv
##kereső
telefonon
beruházás
##KI
bud
használati
ölt
csomó
feled
emelet
##áron
mondan
kezelt
##seb
látogatók
csúsz
mutatott
Co
külföldön
HU
Adatkezelő
részesül
##edit
elküld
dep
HD
programja
álm
rt
evangél
figyelemmel
##intézet
Mező
csökkenti
dar
##azz
eszm
derül
tanulni
nyugdíjas
negyedév
##űg
megválaszt
vállalkozó
Elég
2007.
##ításáról
Eddig
szövetség
ÖNKORMÁNYZAT
Párt
##illant
adják
emleg
számon
szemét
kenyér
23-
##öttek
##venes
számla
érthető
##ügyminiszter
megment
Míg
##EU
elfogadja
márka
##itást
##egedi
csoportos
kormányzati
##for
vállalt
##In
könnyebben
##,-
nézett
végzi
zseb
sima
##lia
ilyet
másnap
##ph
sárga
##fik
fűszer
Tudományos
regionális
mehet
területeken
vizsgálata
nehezebb
org
tünet
bevándor
Gab
választani
tudomás
mérsék
nyomás
rém
tanácsadó
##usa
elkülön
kapsz
bél
##inform
ugyancsak
számítás
bekapcsol
támogatott
sikeresen
Fekete
##ré
##78
személyre
Sy
legnép
Qu
##umok
##ezésére
##ántúl
##szerzés
##szív
szerettem
##etik
demokrá
##szag
sérült
megvizsg
célú
területet
állandóan
Legyen
##bár
hétköznap
végtelen
körzet
ellenáll
Bart
##ánia
##akk
vették
megbeteg
ER
2008-
Rövid
lehessen
Éppen
##ALOM
bales
Államok
jelentett
Petőfi
##-8
##íván
gombra
##uti
szeretett
##galmas
kerületi
##ené
tető
##vezetés
előírás
Szegedi
érzelmi
jelentése
Molnár
Fesztivál
vív
kosár
##list
búcsúz
megsért
##fordult
##ükk
##odr
##we
kaz
jogot
törvényben
##ulcs
26.
felesége
##ávid
##piaci
##inn
Vörös
##állomás
##df
##rist
fázis
kip
ősi
bátran
Max
járműv
adatot
##yal
fáradt
adót
szervek
lehetőségét
##TÁR
##járó
##____
alkalmából
eredetű
évesen
##eges
körbe
##sik
##odni
fegyv
kategóriában
##olására
##erni
témában
dekor
tranz
emlékezet
vásárol
##tudom
##"-
megsemmis
felbont
2009
csavar
ezeknek
kiáll
tanulás
mekkora
népesség
2018
##lon
##nyújt
billent
beleértve
##vére
##eztünk
növekedés
Irod
zavart
##szolgálati
tapasztalatok
##etve
tojás
találkozó
szeretnének
bemutatkoz
##rav
##han
cselekv
2009-
alapul
Pénzügyi
generáció
aj
megkülönböz
értelme
csendes
levelet
##össég
legkésőbb
##lós
Jobbik
##egészség
##ÉSE
MTA
segély
hazánkban
összegyűjt
##ítót
sajnál
kezelésére
ideiglen
##gin
bors
##ítse
##esült
jöhet
védelme
romant
##ennel
null
Németh
vita
##30-
##ÁLIS
##szövetség
##űek
##onikus
##cal
##szabadság
Kór
hadsereg
folyton
részében
látványos
tó
##fű
csoportok
mozdul
megmond
##beszél
kak
75
Önt
gépek
megél
Öt
találtak
SE
Akadémia
##kezelési
##ohas
Fogy
Valam
Kecskem
kérdő
refer
bok
csepp
##ületi
180
versenyt
haszn
##umot
szoros
meghird
2008
##álatok
##álog
##udv
kezdtem
##jegyzés
##unt
##abbak
manapság
tüz
megtakar
lányok
szintet
figyelni
##esetre
hatályba
cukor
tok
hozzájuk
megnevezése
konfliktus
pályázatok
fogalm
elmarad
keverék
Később
##polgármester
Dávid
szégy
##atú
emelkedett
igazából
működött
##jelen
utcán
stratégiai
##Európ
##forma
27.
tényleges
Nyom
##MP
28.
Air
##sejt
##kot
sav
szebb
2007-
Márton
megváltozott
##aktérium
Gyors
##ismeret
Vagyis
##abad
világszerte
gerinc
megjelölt
##”-
##ekély
produkció
##étlen
rász
##ÓL
##üzet
érdekelt
##gyors
hód
##hatás
##óka
##32
holnap
iskolák
##ish
##apr
madár
tanú
mondat
anyuk
veled
halála
elegáns
beépített
##tám
borz
##:1
##abizt
időjárás
##ogatni
Egyik
##ülési
amiről
tesznek
##ánnyal
##pat
##INT
úti
látjuk
akkora
kérem
Telj
hatóságok
##almú
keletkezett
##OV
eljárások
munkavégzés
Mil
##áinak
##eléssel
ajánljuk
##,6
##ilkos
##off
##08
szervező
##usztrál
sütő
##attól
MŰ
benz
Vajon
büntető
pályázatot
elsőként
középpont
vendéglát
harmad
aláírás
##hord
Bál
##munka
gyülekezet
##37
Hagy
játékosok
telek
útjára
illeszked
angyal
##etikai
Kiadó
harag
készülnek
##edben
Film
elár
felmond
egyenesen
##ezem
megkezd
gyanús
laptop
alakú
Szerencsére
##óbert
§-
értéket
földi
nyerte
mellette
szorg
megelőz
akarta
##mező
##étele
hátrányos
##,...
követi
fiúk
##ködési
felszól
felhasználása
képviselője
##ino
Kb
##forgalmi
##őke
##car
ízlés
##utaz
##reg
uk
túra
Telep
nyugodt
55
Ing
##alis
##96
fák
címre
várost
választék
szub
szert
Kereskedelmi
merev
hozzám
képzett
##yt
büszk
bic
autót
hónapos
adódó
álmod
##gatni
##növeked
váltak
allerg
##rac
Teljes
##ÖK
##szolgáltató
##tél
oszlop
akarat
Mc
felsőoktatási
th
##esztett
##ENY
SZABÁLY
##?”
esztét
percben
##ésről
resz
##lánc
fókusz
olykor
távolság
bajnoki
Col
parkoló
vírus
nélkülöz
##űri
Os
##törvény
ELŐ
ragaszkod
ciklus
felvet
##FA
kitüntet
Kit
fájl
vasúti
Internet
Országgyűlés
##ázi
26-
elhang
végezni
##akciók
it
képviselői
lefoly
Parlam
éles
kanyar
létesítmény
##ónia
##rosoft
mérg
Mac
iP
kezdeni
Pont
használjuk
barátnő
ügyész
szabott
##latform
Saját
DV
48
szegedi
##ham
Jegy
Géza
##íthat
Oroszország
##állítási
gyakorlatban
##ána
##odnak
##2/
feltűn
többiek
tisztán
járnak
kívánja
egymásra
szakképesítés
állni
kastély
címzett
38
##hög
##zõ
##ednek
fontosnak
PC
állítólag
Cseh
##csere
##ányos
##ehabilit
","
tömör
MN
helyére
class
székhely
##BER
##regény
##hette
kategória
hűtő
Tény
legyőz
120
bonyolult
##sy
baba
pedagógiai
párhuzamosan
tisztesség
##cska
rendesen
remélem
fokozatosan
stand
##atik
##állap
##eljen
összhangban
biztosítás
##ÁSZ
tőke
irányelv
sajátosság
kaptunk
##odor
##RAM
##üszöb
##asa
alapon
tért
szelet
akarom
szőr
földön
##esk
##etést
lovag
erkölcsi
Jan
életkor
olimpiai
Ja
##rendelet
kiép
településen
mértékű
besor
konferencia
megmarad
##mw
##gyakor
##alizál
álom
##osa
kísért
Fejlesztési
járulék
okost
##ítéssel
megtörtént
kond
győzelem
Személyes
SP
ani
sürg
FI
vihar
Farkas
ahonnan
00
elkötelezett
jelzés
költő
Ifjú
lakást
##Több
éh
##rutt
legutóbbi
kéri
##ozással
művelet
Központi
következők
ismerete
újj
nyilvánosságra
##üvely
kozmet
drog
##UR
kellő
szerver
##ÁSOK
##vezér
28-
pontban
adminisztr
Állami
Reform
Pan
##Mi
táplálék
hallottam
elkészítés
##zünk
helyzete
##édelmi
reakció
kült
azonnali
##őleges
##volt
hete
repr
##3)
##etési
ötven
részletesen
tünetek
mindazokkal
##ild
megjelenése
##ratul
célkit
##air
Ur
##BA
Dav
bútor
eleve
##iasztok
ret
határon
szerelmes
svéd
tartalék
\
##bizottság
köre
oldalról
Szövet
tort
tényezők
üdvöz
Tisza
##anyagot
Történ
belef
##atér
befolyásolja
Rákóczi
kérte
képviselet
##ongor
teljesítése
##ökkel
mindenhol
talp
spir
belt
felmérés
##tetés
proc
Feltétel
idõ
Határ
tárgyak
átfogó
##enter
települési
ult
emelt
##urt
ételek
tulajdonosa
Egészségügyi
nemes
összeköt
34
vállalati
átlagosan
##emből
kártya
##"&
##íthatatlan
##pan
egyenes
##ohasem
to
##vező
##mentesen
Számos
megrendezésre
##élek
szapor
hor
sül
##adási
csíp
témakör
töröl
##ellátás
növények
kerülhet
##ókép
##atőr
Bl
##jainak
narancs
fantasztikus
##épület
előfordulhat
folytatódik
##övetkezet
akivel
felfügg
##növény
MUNK
merül
TÁMOP
Helyi
##összeg
szabályokat
##entrum
##kóz
eszközöket
hagyja
végeredmény
zsák
arányban
##ekul
legnépszerűbb
szerb
termelő
index
##típus
szoktam
Temet
att
##vedett
jogát
##mérnök
##ikó
##páros
fölé
rág
szimp
fogjuk
szovjet
szerviz
##kód
imádkoz
##ned
konzult
##XI
huszon
Hamar
autób
eredményei
idővel
igyekszik
Azok
##völgy
##ÉNEK
##Am
gyerekeknek
##uf
foglalkozni
##eráp
Harm
Debreceni
felében
valakit
regisztrált
Sopron
Ro
##jétől
sikerrel
gumi
gőz
magyarul
##apt
üzenetet
épületek
jegyző
leírása
##98
##õr
##otikus
##ŐL
##áf
korlátozott
##asag
Azóta
megjelöl
Ért
tervezés
állapota
ellenzéki
##mann
##enie
##sch
ket
bekezdésben
Szal
tend
vallási
következett
##zatok
eredményeként
időn
teret
Sár
##űlt
##ülést
csip
Abban
dokumentumok
kiegyensúly
ÉV
labor
##raszt
##MTI
határid
betű
##irekt
##ulaszt
##ozzon
egyszerűbb
##ermeket
avagy
Gazd
akkumulátor
klin
Fővárosi
esetek
Men
Négy
Róbert
##por
főbb
Alkot
##ukk
TART
rut
Mak
isteni
pontjában
1.1.
la
##68
##own
élvezet
belek
megelőzően
##ásuk
##olunk
politik
##77
vám
jelkép
ellentmond
##ájába
Hosszú
Szabolcs
##NT
unok
indokolt
Továbbá
tartották
vízben
műtét
fektet
ikon
##adatok
0.
##uv
típusa
melletti
példát
Bevezetés
##autó
Hold
jelentősége
árnyal
##hetőség
##upa
##itása
összesz
Csoport
megszület
##pul
Microsoft
##orvosi
Bab
##zata
##előbb
##fe
##les
##ítunk
Du
Apple
##ságon
lassú
##jéről
honlapon
gyulladás
órától
Érdekes
HELY
műhely
elpuszt
Kálmán
hangsúlyt
orv
vont
##entől
##ool
döntése
Dom
##olását
vegyes
##onnyal
bázis
mondták
Gu
Könny
kapcsolatba
##tatása
##ezéssel
lágy
érinti
képtelen
Neked
##olid
Vállalkoz
folyamatban
##,8
Rich
Fotó
##De
kiír
paraszt
##zem
szerepét
##aimat
vereség
LED
szolgálja
##Al
Ható
megoldani
horm
otthont
Hason
bocs
front
fejét
##hone
előadást
visszajel
##fejt
utód
ront
javaslatot
##kezett
Mátyás
olyanok
##eihez
módszerek
paradicsom
##ELEM
élők
kital
adták
##!!!!
szeretnéd
Remélem
Dáni
vizsgált
##uta
luxus
hónapja
##ube
Ford
ragy
hallott
megvéd
##hasson
##ational
akarják
összefüggésben
##edagógiai
Marc
##ezések
menüpont
Készült
##lay
##reszt
frissen
labdarúgó
##ostor
akarsz
Rendszer
szórakoztató
##kv
Brüssz
liter
futball
##4)
##jetek
##ical
mennek
kinev
köszönhető
##kai
##.....
VÁROS
##ean
kezdődő
ifjúsági
##,2
növényi
születésnap
##alatt
fek
katal
##RÓP
##ossá
koron
inspir
versenyen
hétköznapi
sl
##cional
##05
29.
vonatkozásában
Hitel
nyomtat
megír
##KOLA
vacsor
robot
##elettel
##tk
Li
szalag
##tv
méteres
##roid
Mont
fenyeg
elindult
létező
##ade
##aiból
hivatalosan
Sa
##esked
egybe
baktérium
##izz
ajánlom
##edre
korban
37
találta
##álható
##UT
életem
létrehozott
##anács
##iek
Mark
tőlük
terasz
fedezet
Párizs
csinált
Inter
##érte
fárad
prec
##ációban
##atjuk
várni
Mod
konzerv
autós
tás
##további
Jogú
citrom
ragad
##jelölt
##zsák
királyi
##rael
bírósági
többféle
##mm
##energia
lényegében
##telenek
##ugr
Tom
védelmi
Közgyűlés
gondoskodik
válnak
##zavar
nyújtó
Parlament
minisztérium
legfriss
állom
inst
illusztr
##ruttó
módosítása
egyeb
meghatározása
65
bány
##inger
##bo
##házak
Besz
##tanács
forgalmi
##/2012.
Szabályzat
##antól
összeállítás
##használat
érettségi
levon
statisztikai
bevall
elı
szerette
boldogság
perces
felirat
munkatársai
##egyenl
kitűnő
##politika
villany
fővárosi
monitor
bármit
##számot
##KOZ
kapitány
ES
##uff
##gazdálkodási
meghalt
általuk
##valók
doktor
##NYV
Balog
legfrissebb
Egyre
töreked
kutatások
éjszakai
formája
##álására
népi
der
hálózati
##darab
Prof
kóst
##vak
##CH
##ôl
formátum
text
légi
sereg
írták
igénylő
foglalja
Felelős
GDP
Karácsony
Trump
repülőgép
tar
##hozzá
folt
utasítás
komolyabb
zöldség
forgalomba
##,3
adunk
##ájukat
##irigy
módosított
beszélünk
🙂
##lanak
##iport
##ataink
számok
27-
gyert
kapcsolódik
garantált
##bc
csapadék
nevezet
százalékát
időnként
enni
##keleti
Pro
családja
jegyzőkönyv
szürke
##felügy
holland
Ahhoz
##lack
feltételei
##űen
Sziasztok
alát
2006-
##ainkat
okok
Felső
def
kifejleszt
##anni
Sal
##ect
Temetése
bep
##atása
országot
országgyűlési
Ágnes
##arat
##ommal
nyomon
##cip
For
szóba
##visel
##?)
ID
amelyre
##ültem
Com
##ÓG
Mer
kel
tesszük
##esd
vehető
rövidebb
rendőrök
##OLY
hallg
##ülése
acél
##ünknek
múlik
##6/
négyzetméter
##rek
családtag
háromszor
véleményét
##abbá
##tudomany
rekord
Japán
mutatta
mesterséges
Nyíregy
hagyjuk
nézzük
fogsz
##napos
Pi
##iros
feltétele
##net
agressz
##mat
Jász
túlzott
fordított
nála
gyakorlás
tevékenységét
márk
szabályai
##LL
párbeszéd
##VET
csatorna
ugyanazt
ORSZÁG
készpénz
lakossági
anyagokat
Orv
gaszt
##csillag
képviselők
negyven
##óbeli
átmeneti
felsorolt
Tar
fejlőd
felszabad
##rei
##ucat
Kereszt
##/2015.
alelnök
##rét
kisfi
otthoni
kötelezettsége
bib
##ml
ajánlatt
He
történetét
##TR
li
horvát
embereknek
hekt
nevezte
##lati
##ódást
2006.
alkotás
tilos
pályára
Vis
##képzési
megismerked
elgondol
vesszük
lennének
##csapat
egyidejűleg
portál
##képző
egyez
mezőny
optimális
Sziget
középiskol
sohasem
##annon
megkül
felhatalmaz
##ance
jogszabályi
##telefon
gondolja
szennyv
##onat
Ingatlan
láss
területe
##ael
növeli
vonat
Szombat
##asson
közreműködés
##ájáról
havonta
fogyasztói
hátter
közzé
##jére
##egye
címét
##udarc
##nai
technika
##óly
##úf
megalak
##cikk
##ÉZ
44
fürd
vásárolni
##etta
alapított
##zunk
SZÁM
hold
hazug
##arát
lakások
szell
Gazdaság
gimnázium
Ide
VIZ
##ronz
szenvedély
autópály
EP
##ezünk
vezetés
ELTE
Diák
##orbeteg
##vers
Mód
Szint
étterem
bennük
Bef
##ítsák
munkavállaló
##egység
##KV
szin
##ellenőr
bevált
Mire
##3/
##nehez
vezérigazgató
##ezred
##zy
##niuk
Prób
##csökkent
működése
egymáshoz
##vilag
mérete
##öveg
célszerű
Mell
##köny
EURÓP
##aa
##10.
dől
##66
műve
##haz
##ekért
virtuális
prog
nyújtani
##felhasznál
munkák
lettem
##bíróság
##adását
Bécs
##suk
közti
mindazoknak
legközelebb
Tér
##etnek
##ezettek
vásárolt
adatainak
barlang
##aszín
##ánkban
szervezők
gyerekeket
##uvar
→
##továbbiakban
##ária
sportág
völgy
Techn
Seb
##erp
irányító
man
tankönyv
##gó
##milli
##ságosan
##ÁCS
##ünkbe
##vájci
##kezési
egészet
##dődött
református
Megrend
Szlovák
terem
##col
mélyen
Kez
dagan
emlékszem
##emen
##szakasz
szerezni
szempontok
tisztség
##har
##uly
polc
gyöngy
biológiai
utóbb
Art
tra
##rid
szerzői
##ítom
##okatlan
amiből
gyári
##vevő
##éjét
Zala
gondolkoz
##főnök
télen
késő
megbízás
##ála
##elésre
gyűlöl
EG
##kocs
pof
kommun
Jav
kérdéseket
helyben
##ATA
##latot
derült
##ero
támogatásával
##éval
lovas
(6)
nehogy
##pontja
többlet
##bány
genet
általunk
Kő
fűző
cucc
##34
##EGYZ
temp
2007
okostelefon
Bo
Zöld
országokban
nyertes
minta
Elekt
##ömeg
megjelenés
##émium
##niük
megis
jellemzően
okból
Bajnok
Eszter
##aszk
##RI
##vin
##onald
előnye
Tudom
hotel
szektor
Vill
##uzz
Eger
Simon
Kérdés
Ti
díjak
##,1
##aw
##hatok
##ÉRT
##például
zsin
lecs
kontin
Mal
olyat
udv
##assuk
rendszere
##,7
##olya
készültek
Kelet
##oduc
NB
fogadta
jelentkező
azokra
##ecsem
##kán
legel
puha
városában
bol
##értékű
szerinte
mg
félelm
##őri
kudarc
mostanában
intézményi
##SE
##ácsol
adás
vész
személyzet
feket
##,4
Op
fogalma
felold
kinéz
##művészet
értékét
szam
kering
tengely
picit
##mart
Bálint
barna
##cell
növekvő
bemutatott
MEGY
##ismertebb
MI
hiteles
##hatom
Fáj
korrekt
hangszer
bizonyult
javítása
len
##ámat
szitu
##esés
hüvely
bűncselekmény
Alex
honnan
Gl
senkit
békés
figur
autóval
Kan
KER
robban
jelentkezik
##ódtak
félt
mennyiségben
szakértői
számodra
##csarnok
Út
##ételi
gondot
##készítés
díját
Vad
vét
ahová
részeként
vezetők
Református
Jo
189
gombot
szerves
##élyeg
illat
szőlő
hibák
jelző
##,9
tréning
##TC
##ins
##épp
szélesebb
Jam
kapja
sehol
tartottak
##olsó
szimból
##orld
##állapot
##EZÉS
haszon
pohár
##élték
tükör
##artman
##ációval
##hozni
##ÉV
##OGRAM
főszereplő
élettartam
fekszik
##kes
bruttó
vari
Form
pápa
Telefon
##kutató
odafigy
futár
CL
##vények
fokozat
##adion
##szolgált
ugyanez
résztvev
Biztonság
##ennyit
Jel
So
##dd
tanító
Sc
soron
Ev
haladék
megtartott
előírások
##afut
mindenképp
eszközökkel
Nonprofit
eredő
##AZD
##aty
##ízis
hagyni
kiált
##adrág
látják
elhelyezett
##sek
hátul
törvények
##lant
fidesz
karbantart
bezár
kialakítás
mögé
##avig
bevásár
ri
irányába
turisztikai
amihez
fogadja
Honvéd
Iroda
rehabilit
szemlél
##ítson
építeni
meghaladó
##dnek
Oktatási
##hold
gyorsabban
találunk
##hit
akarunk
##abeli
kezében
medenc
másképp
##hős
##kis
##attuk
ülésére
szolgáltatási
##ington
Angel
Erről
megtörtén
##An
##ezheti
##ae
törlés
HAT
##ünkön
##hatta
##mutat
##hasznos
##ideje
sza
##olj
##enem
méreg
Mus
Index
Sik
##KK
##szövet
ov
pillanatok
zenét
segítenek
##tóber
nyugalom
Előfizet
##ózsa
Ger
Közel
jellemzi
vándor
Brüsszel
250
akárm
bent
Rendőr
rutin
Erő
##istály
##esítmény
Család
pályázó
beszélve
##menny
célt
les
##őny
megvilág
Tájékoztató
készítette
Tavaly
elsõ
tes
##output
##egészségügyi
sokféle
29-
állítani
##olád
##ulin
megszabad
##4/
Szerző
térd
##bet
bronz
##étt
##állítani
##jól
élénk
tudtuk
összej
mellékhat
helyezkedik
csodás
##vételt
Rádió
pedagógusok
forgatók
##8)
férfit
##udomány
megítél
##lését
házban
folyós
erővel
egészségügy
##tetni
Kollégium
##zékeny
vizes
##fesztivál
megvalósítása
##12.
##helyettes
Mos
pusztán
##étert
kitör
##hálózat
##ele
kibont
JOG
kapcsolattart
ink
##eszem
Szél
##zetesen
600
segített
turizmus
baráti
összefoglaló
megyek
ox
##emények
##OSZ
##ásból
VIZSG
Pécsi
##sag
##ZS
##errel
Bors
ismerik
fűz
Vált
Ink
érezni
##eszközök
ellenőrzése
##iszem
##fed
megeml
falak
latin
po
##.),
okirat
szerkesztőség
hatvan
Bő
Közleked
##ékkel
##ájus
San
ezekkel
beind
döntések
Baj
##acebo
Mot
különben
##brid
magától
ukrán
##ÓK
##1/
véleményt
##elmét
fotók
##kun
##iával
##pressz
Had
tőlünk
egykor
tárgyi
diagnoszt
##mez
háztart
szükséglet
tartjuk
belváros
Ant
kompon
megállapított
árul
CX
fix
változtatni
hú
hamarabb
##erekkel
##parser
##09
szerepelnek
BUD
##bud
##fot
fenyeget
gyakorolt
számban
nyugat
##stubb
##stubbox
##forgalom
##100
megtapasztal
Konfer
Általában
Bíróság
csuk
gyorsabb
Wi
választotta
Művészeti
maradnak
##NÉ
gyermeket
Székes
TÖ
előadások
lefelé
tengerpart
Albert
várnak
##DÉS
##ena
kerülni
Stat
erők
Akik
feszültség
magabizt
főnök
DE
használnak
export
közülük
##tatta
##uljon
lim
szerda
bed
egészében
irányban
##ké
düh
oldalra
##éki
számolt
##ámaszt
EURÓPAI
cir
##vágy
teljesítményt
arch
kapacitás
válogat
jártam
Han
nemi
##bőr
hallani
bajnokság
##mérő
platform
Lét
##aikat
újonnan
szénhid
##elmúlt
végleg
õ
venn
ók
Készítette
Hasonló
hozzászólás
nagyban
##ílt
zsűri
##íciók
viselkedés
design
határa
megszak
izz
ident
##izm
útra
változata
Bog
szembeni
házak
vonzó
##hó
Lov
korrup
tartalmát
##jaiban
jelennek
##rai
helyettesít
##ccs
tudomásul
##szki
##ostól
színe
##72
nagyság
Közhasznú
##ney
Rad
üzemeltető
##enciák
##hetőek
##aszám
dim
##helyet
levélben
##ruház
Különösen
##fenn
igencsak
39
féle
ingatlanok
épülő
##olásra
munkavállalók
##méretű
##aktor
óvoda
##/2013.
Kéz
szokatlan
horgász
illeg
hittem
felvételi
##vezmény
##űvös
anim
##ASZN
játszó
Kim
senkinek
##ézis
eredményes
jo
félelem
járni
felépítés
tartunk
köze
##osított
üzemanyag
piacra
##iót
##LD
Kicsit
jobbra
##ődés
illik
##ükség
##eszter
##dc
pécsi
távoli
hangzik
cukorbeteg
gab
ereje
veh
tanulmányi
Németországban
béke
karakt
1,5
gyereket
szennyvíz
hatékonyan
uralkodó
TÁR
Név
no
hev
vezeti
##order
nedv
##itas
Figyelem
Vezet
övezet
ásványi
krón
tanítás
színházi
egyúttal
##elõ
ellene
győztes
népszerűs
megalkot
vigyáz
praktikus
Mo
##rad
##enünk
egyből
##vend
##lad
##épít
húsvét
remekül
átutal
##/2014.
csomagolás
órák
máshol
Ettől
Luk
Hozzát
üld
belet
értesül
benyújtott
##gyár
##kutatás
helyezés
edény
pól
##orvég
Ugyanis
kezelhető
##ükön
##/2011.
##tenger
##ehéz
##ánok
tevékenyked
televízió
##alapú
##izód
hagyta
forrása
##ofőr
óriás
módosításáról
Emberi
##anál
álltak
lényegesen
##blog
Magas
közelmúlt
padló
hagyott
##ezzen
lt
Szolgáltatás
##osnak
Édes
##idős
##essel
##ésekre
##ködik
egyszeri
##minden
##ülését
##őkész
Berlin
Online
megmaradt
lőtt
céllal
küls
Polgári
##ali
##ínál
beoszt
cikket
Bem
USB
beton
szeretik
szocialista
elképzelés
erdélyi
##BC
##oszkóp
legjelent
##eltség
tervezet
értékelése
hívják
##ken
kedvel
##ességek
##.).
##ÓD
##ítések
##SH
184
led
Erdély
##VEZET
##67
kiválóan
##ÉKOZ
maradjon
stratégia
védelméről
##zedék
##szél
##együtt
##árg
##kur
eleme
léleg
PROGRAM
##özés
császár
##ödés
kompl
tekintetben
cselekmény
Amúgy
##elje
##szavaz
önállóan
Mész
Legalább
fennálló
vagytok
Szolnok
számítógépes
##yn
lépést
##ületek
Mielőtt
##rang
##assák
megr
ruház
##lést
##tív
kím
elcs
eszközt
felét
romantikus
Hiába
##fól
lenyűg
katasztróf
Dob
Kecskemét
ÁSZ
##64
érintettek
objekt
##pálya
weboldalon
##MA
jegyében
meghaladja
##Or
nagyot
lendület
egymásnak
érkeztek
zuhany
##atnak
berendezések
meghosszabb
mol
vegye
érezte
##JÁN
depressz
Máté
##unkkal
##elésére
védelmet
Államokban
##lep
##69
támogatások
##poz
felkészült
##uhász
##%)
felmerült
ötv
maradni
különleg
sí
anal
tehetséges
##kártya
##ÁJÉKOZ
OTP
apja
##evétel
Endre
##atlanság
tucat
##utak
elterjedt
##óan
változást
##10-
változása
Spanyol
Üdvöz
##fajt
Vendég
##Szer
Polgármesteri
Agr
dek
##csok
##táv
kezét
ügyfelek
##ulát
##yle
##sort
nyereség
##SÉGI
időjár
##ésétől
##berend
megemlék
elválaszt
fizetett
Merc
##ákról
könyvek
feldolgozás
geszt
##bíz
történetet
##EH
észrev
Alkotmány
közvélemény
##LÓ
##adásra
##időben
##ATAL
szorong
fogod
ÉR
Net
Cz
##kam
##oper
##evésbé
kalap
##api
recep
jellegzetes
Hit
svájci
##anyi
##esleg
sárg
csecsem
szakszervezet
úgyis
újból
feltételeket
megrendelő
##ilap
##rogén
szerez
##rata
vol
##felől
Hungary
ORSZÁGOS
alkalmazásával
Ildik
készítése
##amsung
tablett
##adások
##anyelv
##ondoni
Rengeteg
esélye
tavasszal
dolga
##ower
csakis
Tak
tápanyag
rö
ENSZ
elve
##OB
felnőttek
objektív
megbízott
##ölte
##éf
helyeken
fotóz
mennyit
Kert
##ikkal
RÉSZ
AM
dzs
Fény
karrier
Fal
Mégis
##ffer
próbálja
##eiből
megnevezés
előd
##UN
hím
fogalom
RENDEL
##/199
ismételt
csatlakozott
adjuk
ideiglenes
színvonalú
prop
fõ
Takarék
szóbeli
találták
##ÖS
##kil
##11.
##sák
##atom
Barát
keretek
dall
Ered
##urcsány
közbeszerzési
nőv
alapterület
kapcsolata
Művelődési
ellátó
gyarap
##ítésével
188
##áltuk
ezekre
legendás
magába
##átorok
kezeli
##tó
lejátsz
Hom
Regionális
erőfesz
hozam
##ességének
pok
tartalmi
##változás
Soha
##pontos
##KÖZ
hiányosság
Mester
hívta
##gen
##ázza
##öly
lejárt
nyelvet
Túl
##közlési
percet
ellátása
parancsnok
Ifjúsági
2000-
##NS
ördög
##éseinek
filmben
##ebbek
##lagos
##igen
orvosok
Met
anti
örökk
Szinte
Margit
##ute
Adatvédelmi
örülök
szakértők
##jelző
##icz
zongor
stúdió
##rendszert
másként
hívja
##érés
##értek
fűtés
megbeteged
haladéktalanul
##osabban
Fér
##éma
versenykép
##gá
ősszel
##ezzék
##rõl
vir
kollégium
##ívum
##che
fokhagy
vezetésével
alábbiak
##olót
Mindkét
##cukor
##őzött
kábel
kard
kézb
blokk
##OTTSÁG
##iot
utazási
lencs
munkaviszony
##áim
várom
lelkész
tisztaság
##agram
mentem
zseni
##esítési
szabályairól
##LAT
##itz
maj
Andrea
##inkron
##szerelés
ülésén
ezekben
##lim
Tájékozt
##nevelési
legmeg
problémákat
ellenében
##orog
államház
dkg
Dániel
együttműköd
hosszan
bennünk
##azar
részletek
##bek
tét
##IP
Székesfehér
tőlem
tegyük
tot
párkapcsol
Néha
Rep
##kodás
3-4
Óvoda
minek
érdeklődők
összer
mondható
hany
rendezés
bemutatni
opt
##kérő
##történeti
Vol
##ázati
legtöbbször
##eddig
páci
Amint
szükségünk
Elnök
##övetelmény
Tor
##gazdasag
mentes
szobában
Boldog
##kormány
Amíg
őszinte
igények
kezdeti
hozzák
##auto
légkör
##áh
Foglal
utoljára
csapatot
##ókban
tárgya
Főiskola
##onya
epizód
postai
Blu
Korábban
tapasztalt
székhelye
##onn
megszűnt
Valószínű
buz
Szolgálat
##színház
kevesebbet
##azonosító
felp
Katolikus
utak
pillant
kérdezte
##ulajdonos
megnyilván
##iki
##ásztor
macsk
buli
tőzs
##bf
Izrael
felszív
elf
teljesíteni
későbbiekben
Kell
megfigyel
szomszédos
mozgalom
azokkal
elmegy
##nád
##mailben
gyöker
##KA
megnézni
londoni
magasság
##fontos
megtanul
halt
figyelemb
import
gólt
szerződésben
tudatosan
szenvedett
##rász
követte
kiterjed
##kerék
hitelt
professzor
garancia
eloszt
számol
meny
##ÜGY
Választ
Hozzászól
tegye
##vid
kimer
ritmus
##őződés
Ker
##hár
károk
munkanapon
kétségbe
indulás
pezs
Kiváló
Robert
##Budapest
85
Hamarosan
stratégi
roz
##rok
halálos
esztendő
##onóm
lakók
##ermék
hova
##hetõ
##mutatás
héttel
megtervez
Pak
2005-
túlságosan
érzed
##asok
visszam
innovatív
meggyőző
David
frekv
hasonlít
igényt
kérdőív
banki
automatikus
közúti
Mel
fedél
halm
programokat
kart
hazud
terheli
Telek
##ikönyv
keveset
gyermeke
##áma
valamivel
lépcső
liberális
célból
##lata
##kereskedelmi
MK
leggyakor
BUDAP
##ij
##egyenlőség
megbesz
röviden
évtizedek
működésének
vicces
2006
##esik
adóhatóság
vágott
##üs
##szeret
Felhív
##ege
kerüljön
##rong
##ling
##nt
feladatai
Hajdú
Talál
esztend
##81
élünk
##iak
##földön
vizuális
működnek
##umpl
##ájt
kérdésekre
##74
forin
##rix
integrált
##ano
Kapos
törleszt
jelentenek
ellenfél
nyeremény
##sugár
##-3
Hid
összetevő
csatlakozó
legjelentősebb
##áty
##ategóri
##rejt
számító
fogyasztás
##félék
##izálás
elkövetett
~
fiatalabb
Fül
##ref
##ale
megbeszél
bizonyítja
King
szeme
Sokszor
vinni
energiat
kifejt
##itását
##ázár
meghatározás
néztem
Pap
##Ny
hallgatói
##jjön
felir
##émi
##állom
##önd
köztársaság
jövedelm
közzétett
testvére
##áne
átsz
visszaigaz
percre
választások
sorra
Székely
böngésző
##jó
##abor
eljárásban
##üzem
##érzék
##kelt
##VG
##ÁZAT
(10
##zor
kimutat
##EGYZÉK
hobb
zajló
##vág
profit
keresi
szerszám
##asztás
##atosság
Se
##hatatlanul
##álást
Szület
Gondol
étkezés
semmiféle
##ógus
bejelentette
Szintén
szorosan
SZABÁLYZAT
MÁV
##avi
részének
kihívás
segítik
közhasznú
Digit
##úak
##teremt
##házy
fordítás
##nik
##cid
##round
elnevezésű
memóri
környéken
eről
##kev
pog
##harmad
érvényesül
##ágyi
fejlesztő
##-2
fogyasztók
napjainkban
hangot
##01.
bál
##Köz
##árnapi
##veszély
Semmi
hatodik
zajlott
Önkormányzati
kamera
értünk
ülő
rászor
##mennyiség
tűnő
megmut
tészta
maradtak
segíthet
##uld
elr
mindenre
billentyű
darabot
eljutt
Ismét
Jak
jellemzői
filozófi
felújított
ellenség
megszólal
elit
szolgálati
AN
##keny
##mon
helyt
okozó
intézet
kerete
magyarság
összekapcsol
##ikával
font
Amerikai
##go
leggyakoribb
ügynök
Georg
##ucs
időpontban
lyuk
beill
kémiai
bőség
egyszerűs
##ris
univerz
fordulat
telephely
##FT
Hum
leendő
Csat
HIV
pályafut
Ugy
felmerülő
házat
kiegészít
pléb
demokratikus
##lásd
kénytelen
betét
Nyelv
hivatkozva
##ibás
megérd
##technikai
érdeklődő
##-5
##???
Ákos
megrendezett
##ensek
tölti
##zöld
##tetett
gondolok
szerény
felfelé
magatartás
hangja
alapos
##ortt
##lapot
##áskor
állította
hátha
##ekszárd
állunk
##VIS
Ag
Hen
készüléket
Adó
extrém
mellyel
tized
##váron
09
hajlék
We
om
##szen
Összesen
köré
igazolás
napló
riz
határt
800
filmek
##oztunk
készt
aty
szövetségi
szülői
bejut
fotós
iv
##állni
##árda
kedvéért
csomagot
csaj
köd
Felügy
vezetése
évről
rejtett
##gazdag
kukor
Magyarországra
##had
##odva
mégpedig
##foglalkoz
Hatóság
joggal
legismertebb
kiemelte
villám
pártok
pici
Sen
##adására
báb
akkoriban
fizetendő
DR
botrány
##izsi
rendezvényen
##uch
toll
##ítószer
játszanak
náluk
##rian
##övő
##hatóak
##község
iskolába
struktúr
egészségi
##ánik
szóban
összegét
Török
Black
##oma
programban
Ko
Arról
##szerkezet
engedélyt
lév
##ultam
ezred
előtér
jogszabályban
##ájából
]
42
számolni
##ítsük
foci
udvari
helyzetbe
megelőzés
plak
KÉR
Europ
Tem
ingyenesen
festő
Előt
melyen
##öng
Zsig
régebbi
belföldi
##utóbb
##ogén
megtalálja
##ötv
##ióta
szállító
magyarázat
szóviv
munkaidő
Március
támaszt
NAT
megtenni
##,0
mentek
Kórház
kisb
mész
téved
állított
masszázs
##omata
lépcs
vért
##ügyminisztérium
##ukkan
##back
folytatni
##eger
##raeli
##eszk
##KÉP
szülés
2004-
azonosítás
##enzi
##...”
torz
##3","
##receni
Mindegy
##pa
##FI
Esz
IR
Sor
tanulási
Görög
##kedés
##ológiát
megfont
Teljesen
##értem
Fut
ken
elemzése
smink
Vélemény
Franciaország
túlél
adhat
##stein
Otthon
felfüggeszt
büszke
Mondjuk
összehang
##assza
IG
spór
BIZOTTSÁG
pontok
##csökken
Dan
##18_
##ERS
Ildikó
Igazgatóság
##umi
##éka
##telenség
gondolta
##négy
sülly
családban
##És
gróf
levegőt
mondunk
IX
##ásokban
árát
##alizáció
##DSZ
##uck
érezzük
##oltunk
megújuló
##ókon
követni
##levelet
##örzs
Vi
tésztát
legyünk
hormon
##negyed
Tran
Red
##OGY
búz
VII
leggyakrabban
nőt
menetrend
Somogy
átad
megoldásokat
mosolyog
NAV
dinamikus
vetett
napsüt
##vezetők
kritérium
megtesz
kijelöl
származású
keresett
mese
##módosítás
szerelm
mélyebb
köszönetet
##alkalmaz
összetétel
terhesség
feltüntetett
vizsgálatot
rét
##andi
bomb
jelezte
##etsz
processz
##zene
Lap
mennyisége
következménye
belőlük
##egő
##érek
##CO
##ith
illető
100%-
##vizsgálat
javára
direkt
Gre
##Fi
##gatott
előrel
Tűz
##kraj
##hetetlenül
salát
##őképpen
hónappal
folytatta
##inus
partján
lehetőleg
támaszkod
##encei
bort
##otthon
##urk
muzs
kedvelt
TEL
Gyurcsány
apa
99
##ottunk
Sar
nyújtanak
##ajzs
belát
művel
felsőoktatás
##usztri
##célú
##előt
##szk
##pest
hangz
##:30
szerencsés
barátom
Raj
túli
felhívás
Egyed
földrajzi
ékszer
NAP
##atokban
ajánlatot
projektek
újjá
leírt
##ókra
Her
leszünk
szemüveg
megváltoztatás
##TL
felkészülés
vérnyomás
Bern
nyilatkozta
tul
találja
##ásom
Szövetsége
meghirdetett
##ségen
##amerikai
szerel
művészi
arab
Katon
témája
Olvasó
előrejel
Egyszerűen
elhanyag
##kiegész
szöveget
összességében
muszáj
##feltétel
vok
##vai
jutni
megrendelt
##20_
rúg
támadó
kistér
követelmények
Tat
építmény
##korban
tartalmak
hozzáférhető
##hattam
##atur
##penz
##intézmény
##fele
ponton
hála
Mezőgazdasági
Char
auto
##vételi
##ellness
##ölcsön
kereslet
megkö
ball
rács
éb
igényes
bérleti
tartalmaznak
jelenet
vízi
Jos
munkatársa
Inkább
Michael
##járat
ösztöndíj
jutottak
##izáj
gépet
start
Moszk
ajánlani
szk
bűnös
Folyam
örökre
Bej
Paul
Miközben
közeg
Ele
légy
dicsér
használunk
##71
mindenkori
témát
rendeltetés
##fizetési
##allás
##irányú
##ünkkel
##mok
Tw
Eset
##erh
sújt
##ossági
feltételeit
##nit
építészeti
megmér
zenész
ügyében
rán
felújítás
##falu
másikat
tetején
kerti
lennék
IM
sokak
##kéz
szakszerű
humán
Vid
##erjesztő
gondolni
nemzedék
##06
dátuma
történeti
##téri
##vonalak
ISKOLA
##kór
95
szett
téve
##menedzs
hajd
folyamatot
##Én
##ÁJÉKOZTATÓ
Addig
előbbi
kristály
##nyolc
##ítettek
AK
zak
##ISZT
kevesen
középkori
##adnak
##ense
fur
autóbusz
##BI
hogyha
##?"
##odást
iparág
ih
egységek
##hassa
útja
##jóléti
kiemelten
felhasznált
mász
órára
Összef
##mirigy
oldalak
képviselt
őszintén
hozták
léz
##ilabda
kicsik
tengeri
találhatók
fer
Inst
operációs
co
IT
elöl
bebizony
##ORT
##unántúl
##ÉLY
Kiemelt
válaszol
számviteli
végezte
ossz
németek
##közleked
korszerűs
##fogyasztás
Október
##EZŐ
Lass
meghatározza
ká
##bõl
Szeptember
##etlenség
##ennek
##aga
elfogadható
##vissza
környezett
##igén
apartman
látod
##ajtó
pon
növelése
városrész
hatóanyag
angolul
kívánok
sűr
JEL
##kelet
##szünk
mocs
felem
rajtuk
##nemű
pet
helyek
tájékozód
##érzékeny
gyakorlatok
2005.
Elmond
olyas
##érkép
##előd
Doktor
megyünk
kézi
neves
rendszerint
##tánc
tudást
nm
##zéssel
eltűnt
##ÍTÁS
roham
terjedő
küzdelem
laboratórium
kényelmesen
##din
sokszínű
középső
komfort
##amon
Kev
mechanizmus
Innov
##ítenek
világában
kezdete
##21_
##föl
részei
##andós
Egyszerű
statisztik
##szig
kicser
##ric
##cher
##82
kezdtek
benzin
felment
precíz
FELH
elvégezni
Fin
büntetés
riport
##épés
##edve
##getés
Papp
Samsung
##edes
időm
turisták
##alja
Díj
Pol
állítás
KAP
gyanú
bb
öz
Csap
radik
##ramm
tudtunk
közérdek
##arend
fuvar
közöl
megtalálni
tekinteni
##text
Weboldal
védekezés
kreativ
##világot
apost
##virág
##emnek
vádlott
állapotú
debreceni
lóg
Tra
Istennek
##tatja
elteltével
cserébe
Mészáros
cikkek
szök
értékesítési
London
DVD
dupla
Egyrészt
Eg
szállít
##ile
##odtak
##kodik
alkotott
idejét
szolgáltatók
##ódus
mutatnak
##vent
##tté
tölteni
47
##asan
lakott
adottság
##lását
##fontosságú
##éna
vártam
Íme
##alizált
lakásban
örökség
Tanulmány
Aty
visszasz
TARTALOM
aznap
mini
fényes
mus
##felt
irányt
Fri
rohan
unalmas
kidolgozott
Jer
stát
repülőtér
Bér
##ies
alg
hónapig
Illet
##esítése
óvatosan
néni
Projekt
##adva
tulajdonában
KU
megcsin
migráns
pomp
Szül
szeretek
1990-
pihenő
Tok
##ceg
##./
##HET
bekövetkezett
tábláz
06
közösségek
##prom
gyám
##ítésének
betöltött
##ványok
Afr
##ősök
Tes
megszűnik
látás
történhet
vásárlók
##aihoz
szintre
elfogadni
##rich
Nemcsak
barátságos
felkelt
bak
mozi
becsület
átmér
hangulatot
##cd
valósul
reprezent
érzik
futt
menedzsment
##ikusok
Gyöngy
forinttal
##izáló
kelljen
öngy
##öntet
##oo
tanulói
fon
számának
mindannyian
##icion
munkával
##hessük
##ülve
ketten
Barc
ren
tájékoztatja
ujj
szerződések
##asság
##eváns
##üknek
Ezúton
##álási
hozzátartozó
##artóz
kism
##ásakor
##Ki
##ábla
korabeli
felvilág
##St
##ream
##ozhat
oldala
Magyarországi
##ator
hónapok
bácsi
CSOK
szeretni
elnéz
##igazgatás
rad
tisztáz
##ermet
##ágaz
LXX
##szövetkezet
Post
Éj
Ros
szabályait
sofőr
paraméter
elérése
nevezik
jelek
törvényi
##87
Innen
##DF
##még
##aidat
##/5
ruha
őriz
játssz
tanítási
##avezető
##nyugati
kártér
##attyú
várunk
igazolt
elvileg
gyűjtött
rendelkezései
látszólag
Pannon
szobák
mutatni
##gent
cipő
kaj
Köv
minősége
világhír
jelentkezett
peri
torony
fels
##ELV
##terh
##úszt
##szülött
##ízing
##ervez
##margin
iPhone
szólva
Mór
mezőgazdaság
##ÖN
Liszt
elfogadta
milliós
lásd
Csillag
hoztak
##olhatja
kisgyermek
tuti
közre
csokolád
félig
##rum
Jenő
kivitelezés
##jegyző
##evékenység
növekszik
eld
##ray
##amint
##szállítás
opció
##ÁNAK
játszót
vállalja
##bd
általi
kézműves
Cont
eredményez
létrehozása
kore
mikro
találkoztam
##ségeit
kellék
##árak
##szenny
##itányság
bejelentés
gyógyszerek
korán
doc
bőrt
##cf
navig
City
bossz
43
Tök
figyelembevétel
igénye
Eb
Vit
##zı
telef
Holland
próbáltam
##oppant
Felt
##onda
Mas
56
szek
jelentőségű
szúr
Hungar
##ítandó
pri
##enisz
##neses
helyzetű
helyette
tananyag
Terv
forgatókönyv
írok
Gyász
gyújt
nagykövet
Május
##atossági
elfogy
állítható
hetente
leszel
gondolatok
teszünk
csodálkoz
VIII
##eljünk
területére
prémium
panaszkod
nyilvántartásba
szerezte
dicsőség
##soroz
##ozottan
valamikor
diét
modellek
bit
##atják
tagjainak
INF
forrásból
köröm
##ünnep
Dis
Imád
képező
adatt
állást
folytatja
##áncél
kormányfő
szakterület
szerencsétlen
franci
Jack
Alapvet
kókusz
rendje
nézők
##javas
FŐ
##box
barátság
szakképzés
##ülettel
Nehéz
tudjon
Bur
##CD
formák
tizenöt
Christ
##/2009.
##szintes
csökkentése
##ugál
Kik
viszonyok
csáb
finn
hétig
intézkedéseket
szintje
órával
Don
tábla
korlátozás
##ásba
##ETEM
természetben
##évi
érkeznek
SMS
írásos
##rib
jegyzet
kattintson
képezi
kiinduló
TUD
tanárok
kapcsolód
Bus
Biztosító
Tit
##akép
osz
186
##ubil
zsidók
sült
demokrácia
54
##hetem
látták
##umíni
ezeken
##áró
szerepl
Újabb
felkeres
##gyenes
Cser
JÓ
Con
sel
előállítás
vert
lakót
róluk
##jaival
##elk
ételt
##elyek
kiegyenl
##itter
Star
választja
elkészítése
életed
##rd
szakos
módszert
##ációját
mindkettő
##rah
belesz
takt
##arvas
számítani
##cm
utánpótlás
##ouse
krumpl
##öjt
kaphat
Ste
tünd
ugyanazon
##szól
láthatjuk
jós
##}.
intézkedés
2005
válaszolt
bolygó
műemlék
##her
akarjuk
##őkap
##elyett
környező
##éses
Balogh
##Minden
##azt
felvenni
orvost
##ülök
Zsigmond
elemeket
##arány
Partn
metró
##OMÁNY
##fát
##hetek
lebont
időszakra
##imb
bankok
medit
##VM
labdát
érteni
kérelmet
Rt
kávéz
Maga
munkahelyi
rendezvények
##illap
##ald
##ove
##BO
##szintű
##mix
##ELMI
Tün
hozzáad
##-0
##IUM
##ESZTÉS
##bél
##ázsiai
összegű
szakképzett
Igy
##ille
forgó
nedves
Szerződési
Martin
##ORSZÁG
Bod
##körű
indiai
látog
##evel
##ulok
##84
megközelítés
hírt
##sk
meghoz
##óna
amatőr
##ödöl
##oncs
katonák
ténylegesen
##PR
életbe
Gyakran
tt
##elheti
mobiltelefon
választották
ennyit
##ién
váratlan
növekedése
##érem
bizonnyal
csík
tax
##acebookon
végi
mindenütt
adósság
fájdalm
bécsi
oldali
Száz
table
versenyzők
off
hétf
##történet
Kun
melléklete
találkozott
törvényt
if
goly
egz
viseli
ismerjük
készség
##19_
**
lök
rost
46
kurzus
tranzakció
foglalkozás
Alig
gyakoriság
##OLGÁL
ert
megállapítása
gyakrabban
##állyal
beruházások
technológiák
domin
##ília
távolságra
##En
Irány
##EJL
mani
interaktív
Véd
vig
jutó
dallam
emelte
##ogott
beállított
2,5
Ment
Si
##ványt
sort
hálás
anyja
MNB
csók
##Magyarország
lapot
vevők
elhár
ellenkez
SZERZŐ
##ográfiai
Ukraj
különbséget
##jáig
##kond
##border
azonosítása
Kaz
tervezési
képernyő
##ándok
evangélium
##erej
tanácsadás
band
zász
##HAT
(...)
sportoló
lépni
termel
színpadon
kezdték
energetikai
ételeket
##áraszt
##gyógyászati
187
emelkedik
##umínium
mindketten
##ökben
##56
éltek
##9)
64
mentő
##sorban
##ELM
mérő
##Ne
Szervezeti
férje
kijav
##korlát
ekkora
tapasztalata
##azs
##teti
##ÁD
##ásától
önmagát
aggód
eljárási
##ISZ
Kína
fakadó
birtokában
tobb
Dani
ÁSZF
##ello
##irdet
lerak
##egedű
beszélnek
tipikus
##enék
legtöbben
##ötel
##áltunk
##ahogy
megvalósítani
##egyház
##mû
##munikációs
kerékpáros
##osságot
##Pr
méltóság
hónapon
képzelet
##uel
Bot
##eteor
derék
folyos
ÚJ
illegális
Hozzátette
megnyom
Soros
oktat
csekély
üzemmód
örvend
kirándulás
Bács
semmik
##talanság
fogyasztása
használták
műszer
réz
kockázatok
##ezső
##NP
50-
##ulások
szigorúan
kapcsolatosan
##problém
##ikkel
##AZDASÁG
##almának
##97
helyettes
Norb
viszi
kezelőorvos
Ausztri
válhat
slág
##omon
Valami
temet
##cég
eredményeit
##uzív
Tényleg
fordítva
lehetünk
add
dizáj
jelenthet
humor
Miniszter
INT
beír
megéri
##umb
nulla
Tegnap
##káros
bevezetése
##3,
##act
videót
kommunista
szinkron
Fiatal
amitől
##éskor
kontinens
idény
##ÍTÉS
alábbiakban
Közösségi
hetedik
alvás
##indulat
nyolcvan
gondolják
fól
takarék
frakció
betekint
ilyesmi
noha
kezdetét
##sár
##rendű
##OLT
##ációkat
kívülről
fejt
fejlődése
##úzió
##ektus
magamnak
##bír
posta
hetek
bám
irat
vezetni
##fejlesztő
##liai
Kur
ahova
Gyerek
értelem
helyszínek
##ward
irányadó
##IC
##everjük
legegy
Függ
megállapodást
2002-
Családi
tanszék
PÁLY
##fegy
balra
örökös
##ítéséhez
hatások
##hették
választók
##ökor
Utána
tároló
fájdalmas
lád
##fus
##király
adatfeldolg
##párti
teszem
tényez
fegyveres
bérbe
08
Energ
trón
építész
##Tovább
https
##way
kem
lejt
vasárnapi
##ESTÜLET
##ASZNÁL
##:...
háttérben
##csa
##igazd
hozzátette
kasz
táplálkozás
##ökország
Phil
##tájékoztató
##kredit
KÉPVIS
házhoz
Operatív
2003-
megadni
járművek
baloldali
durva
szekrény
eseményeket
kötelezettségek
##ága
kezdi
elérte
##üty
##áradt
méghozzá
pihent
##aly
általam
megszerzett
Fre
anyaga
Nálunk
Angli
feje
hivatásos
élek
elgondolkod
támogatására
##Ar
NAGY
felidéz
anyanyelv
##biztos
##annak
órában
##elle
tartozott
részvételi
keresnek
##ped
zab
Gabri
Buda
##atib
csőd
##büntet
konkrétan
bekerül
ajánlás
nevez
##bon
Juhász
díjaz
városok
##rop
véleményem
reális
értékpapír
eléri
##onstr
szervezésében
##szűr
burg
jogsért
amelyből
kezelési
óvodai
indítvány
##erőt
##vezeték
okozza
átk
##upl
tanári
tervező
szerkesztő
##avált
sztori
megfogalmazott
palack
##tere
enyhe
nézet
##adal
kamar
jutnak
kiszállítás
látszott
Android
olvashat
számában
##fül
vagyoni
Pontos
baz
alakja
##héj
Felv
államháztartás
##ozom
biztosíték
tükröz
Szia
##eltetés
módját
Lázár
##iver
2001-
kettőt
alátámaszt
különbségek
infl
##nagyon
töltötte
##eles
ráv
kategóriába
##eph
##kock
egyenlet
újságíró
##ivil
hetes
ultra
erősíti
fürdőszob
gyűjtő
kém
pontosabban
konstrukció
##kb
napfény
##adásával
tea
részre
##tudomány
okokból
fiam
felületen
##énes
hozzáférés
##zésre
jártak
okmány
teker
##dtek
##TON
megkér
tartva
Zen
próf
##árend
engedélyezett
infrastruktúra
##képvis
határideje
gyógyszerész
##lapon
##ájához
katona
színésznő
bizalom
csúny
mindenben
trükk
Nyit
tagozat
fideszes
KÖR
bl
##réteg
##roup
##ashington
választható
sütiket
szentmis
érzése
##=\"
bú
##NA
##vezetője
Örök
##énak
megtag
##amit
##ódása
ellátást
enyhén
OM
napjától
##..."
##ánként
háztartási
##lic
kérdez
találkozik
amennyit
##hassanak
vételár
üzemeltetés
alkalmazások
vezethet
##részről
találkozunk
##rob
finanszírozás
üldöz
izraeli
##endők
dió
Fil
gondozás
mindenek
törvényes
##edző
elemző
közelmúltban
Lu
##ultabb
49
AP
kezdetben
ké
##vizsgáló
sát
Szentl
XXI
közszolgáltatás
##ünt
##ítettem
##olással
világra
legh
Mindezek
Bán
alpolgármester
vitte
várakozás
biztosítják
##jeit
##őrző
##arn
megbecs
##õt
lakcím
Egyetemi
rendeletben
hűvös
gyomor
##kanizs
elô
győri
##usson
indít
kültéri
legtöbbet
##ákhoz
##esíteni
##SD
előzetesen
Személy
kérésére
##Ad
##ötvös
emberekkel
##ceán
nemzetiségi
változásokat
##enciát
##vánnyal
klinikai
beszélgettünk
##entúl
holt
régióban
csökkenteni
összecsap
sós
##modell
Stratég
hangulatú
ingatlant
##fil
összetart
Cor
Végre
##vehető
Oldal
tekinti
del
##hirdetés
rendszerváltás
##zan
intelligens
##éterek
Olaszország
proj
elkap
ÁLL
Mobil
agrár
mentális
nagyb
Ked
részleg
##----------------
maguknak
Cr
Kerek
vízbe
vezetőség
kerülhetnek
olvasók
##koll
##bocsát
mindjárt
##arándok
##)-
fennmarad
rózsaszín
Hort
BUDAPEST
Minél
##appan
##közön
##kodó
feláll
##nam
##kin
Egyedül
nyelvtan
célba
Ahol
##ávalók
tetejére
##cdiv
##83
helyébe
szerzők
##őnyeg
kuk
moder
tanácsot
Pe
##****
beleegy
Comp
miről
bicikl
kiterjeszt
beépítés
elfogyaszt
##sünk
szűrő
##csab
Del
használatára
##edagógus
felvett
BEV
##ázta
res
főigazgató
##elemek
##õdés
komm
bio
##SSZ
hár
Bet
helyszíne
cső
##szalag
együttesen
##ZÉS
November
##almatlan
Mozg
hősziget
víg
fedett
##ányér
##jektív
usz
##hossz
értékeket
James
foglalkozott
evők
##nyilatkoz
##rendszeri
elsőre
elvált
Sam
belev
letölthető
##őrinc
hangos
állapotát
##ozót
##őtt
ellentétes
##ká
elzár
szavakat
##ivé
tálal
amellett
népek
erejét
genetikai
##AF
kutyák
##áth
##ÍTÓ
kifogás
Testület
##arok
lánya
igazoló
##bemutató
##ronóm
##ítheti
##csoda
regener
##atva
##HÁZ
színben
##ituális
##arendszer
jogerős
Kérd
gitár
ellenőrzési
##ima
##ésbe
Vám
##értékben
bizonyítvány
megvál
fellebb
##imet
javítás
elfogadása
hangulatos
félreért
társasági
Rock
Foglalkoz
védi
##EMÉNY
jelentek
Növ
tartósan
##alíció
mutatták
##latos
abbahagy
kedvezményes
Des
Róm
kört
fúj
nyomtatott
##jat
megoldása
##öltség
##hessenek
##ho
##óját
szélén
előirány
intézményben
Zene
kérdésben
játékban
##nya
##Fel
kezébe
fényképező
erdei
eséllyel
Speci
szintjén
számítanak
gazdálkodó
Vilm
hard
##uláció
bí
együttműködési
hülye
##ZÉSI
világa
Lesz
##ársa
elindul
közöttük
##ubileum
visszafog
Forg
kinyit
szobor
##egerszeg
helyesen
Lig
igenis
gyártott
##zatot
patak
sütemény
##arag
##0.000
##örvény
területre
magához
teljesített
pul
##IB
##egyesület
váratlanul
etn
megtám
kiállított
Club
kibontak
185
nőnek
BMW
láthatóan
Bre
szup
hur
évekig
szezonban
##ameg
árbevétel
##apcs
tűr
szt
emailben
kevered
lok
World
Ob
##ségről
Vegy
Augusztus
##attunk
felügyelő
szerte
Biblia
felder
nevezzük
legrosszabb
kölcsönös
szálláshely
fejlődését
előterjesztés
teljesítménye
aggod
##számok
##ETI
kezelést
szabályozott
regisztrációs
évszak
full
kút
kaka
Április
tany
##álati
hatékonyabb
##px
elképesztő
##alany
végeztek
elkísér
festék
újat
turista
reagál
##oka
##engő
Dönt
bélyeg
Mill
Kid
##készlet
##oham
##ításban
észrevétel
Állat
tüdő
éghaj
gyártók
##imin
bizonyára
##ezvény
##erületi
belsej
##kategóri
máig
##kluzív
##ander
birod
Kam
##ezésével
Virág
szégyen
roma
2019.
##ákból
riaszt
munkába
fényt
##isztens
##útáv
megóv
##ánsz
Gold
márt
elérhetővé
Bert
##ekintve
##finom
##oncert
előnyös
##adai
##ázási
##építő
innováció
Jár
##ally
térben
##02
##Amer
Szakközép
védjegy
##zanak
kollekció
passzív
Budapestre
##onk
##edése
módszerrel
Kíván
környezetet
fit
##djön
##jává
jogalap
porn
##kedvelt
varr
##gyűjtő
##ojt
Gi
##emelés
szükségük
##GAT
rezg
##esebbé
garázs
sorozatot
XIX
##éi
gyerty
##ETE
ele
XVI
##iméter
dolgozunk
41
##ossággal
##elg
##TATÁS
kipróbál
meccset
Mindenkinek
vonatkoznak
##ellemző
gyengébb
##verek
belépő
elhangzott
##órendszer
##eden
ismerte
##melegít
##cio
kollektív
fogadó
kérdésem
##inka
##kerek
gén
végzik
Bartók
##iszk
##ivát
földre
##ÁLT
Munkaügyi
##ózni
menn
##usszal
sorsa
kísérleti
bukkan
miatti
szörnyű
színpadra
##háború
legerős
megjegyzés
##imum
Oscar
Kék
természett
tudna
mal
édesap
##stem
holott
##űzött
Zsuzsanna
mentünk
bring
Sokat
##milliárd
Krisztina
összegy
kényelmi
##que
személyt
##óma
MEGYEI
vacsora
kézikönyv
Log
sert
##lovén
Amerikában
megill
türelm
Hy
tep
##elyem
foc
nyilatkozott
##emberek
sejtek
elvet
lámpa
2004.
megérteni
hónapokban
Egyetemen
legény
biztosítanak
nyál
romb
##entált
kiírás
találsz
##ifik
##mozd
kikép
fas
##ödöllő
My
##eller
feküd
hátr
eltérően
##fizetés
Engem
vev
alapját
##SÁGI
##örténeti
ágazat
jelentő
##művek
##politik
hajléktalan
kialakítani
##hettem
perccel
fol
helyzetét
##álkodási
továbbképzés
bárhol
##fd
minimál
érő
tanára
érdekli
tekintet
útt
Can
vállalkozói
##ÍZ
##ítőt
##onom
(7)
Rec
ókori
életév
##vizsga
##őjében
Január
áruk
Ennél
##ölő
házigazd
##enzió
igazgatás
##DÉSI
igazolja
drágább
Iván
ülésen
mértékét
Cikk
megrag
sokoldalú
elhal
700
barátja
##fb
##eznie
alumínium
##ázik
akciók
jazz
lába
kiadások
elmes
fekv
##üzd
##umen
2004
Gyul
Valószínűleg
##acsoport
fővárosban
##ánus
##jem
##űzési
##elmélet
##ukle
immunrendszer
köthető
erőteljes
sorozatban
amelyekkel
##úrát
LMP
nehézség
Hivatalos
fürdőszoba
##cb
Csong
készíts
end
##esztiv
történetek
Bölcs
húst
HVG
mis
útját
##essenek
show
##zéséhez
céljai
##94
csere
teg
##DA
##chen
küldetés
##ALL
érdemi
templomban
Luc
ügyek
##km
megérkezett
elemei
Indi
vállalni
##ogós
költségeket
##93
##szóval
##jeként
##csoportok
partnerek
beállítások
megkapta
##eki
alkalmasak
beavatkozás
##ıs
comb
érdekeit
##SASÁG
gyógyító
felhasználás
##ágó
szólnak
számlát
##KE
politikusok
nevezték
egér
haladó
cikkben
##07
##szolgáltatási
##oson
jellege
##ofon
Erős
##ödött
jelz
##esben
érvényesítés
##hőmérséklet
járunk
##kérdés
titka
Kutató
gondosan
Péld
##SC
nevén
rekonst
Bence
##evízió
Koz
fedélzet
másoknak
##városban
lehetõ
Fórum
átmenet
üdv
##avasz
Pént
potenciális
Illetve
##))
Edit
hozatal
kiválasztása
##ozatos
##imer
javítani
##féra
születik
páratlan
##unkba
Pedagógiai
##ÖR
verzi
látunk
##opt
füzet
produc
esküvő
balaton
eljön
meghatározni
##yén
állásfoglal
elrejt
(„
polgármestere
nyilatkozatot
evőkanál
kézhez
konzervatív
professzionális
##szegény
Bp
státusz
ottani
Egyetlen
##\"\
felhalm
határozottan
Str
zászló
lévén
Borsod
##01-
2003.
##cegauto
ves
érti
##árgyal
Eladó
ellenkező
##itól
neten
sikertelen
##pontok
tárlat
emb
##erman
Öröm
nadrág
kalk
felújítása
köszönjük
motoros
véli
előtérbe
lehetőségei
maximálisan
benyom
építése
##Hz
##Azt
vb
tonna
##elekmények
leírtak
legutóbb
##nyújtás
leszám
##enné
barom
##11-
valóságos
not
##IAI
##ítmény
##Forrás
Benedek
Javaslat
ag
af
lépések
UV
jönni
Mindent
életük
defini
##esre
szolgálatot
pillanatra
gyógyszert
céget
felhő
fantázi
zárta
##hesse
alapelv
eszébe
egyebek
Eötvös
##rendel
Istent
sztr
változatlan
veszem
##őrendszer
aszfal
tartalmazzák
sorozata
##exik
megép
##hib
Bay
prov
terhelés
##enyészt
Vizsg
eljáró
irigy
##sérült
engedi
madarak
akárcsak
##íthatjuk
elkezdett
Működési
##fólió
nyír
hálózatok
búj
tartály
híján
építkez
könyvben
jelentést
medence
pláne
halmaz
oxigén
tiszteletben
Bocs
##Brit
Kisebb
készítettem
határozata
##ünkhöz
Jogi
jelenl
szank
párizsi
##TET
tartalmú
kereskedelem
Gép
veget
##lav
megegyezik
##lések
szemet
Opera
##VÉD
Krist
komplett
gyilkosság
nyerni
##állása
feldolgozása
meggyőződés
küldeni
Elsősorban
##edelm
tágas
ragaszt
Azzal
##örő
##iné
zöm
várta
##oki
estén
visszatért
munkájuk
Krisztián
skál
elvis
##ökkent
iszony
munkálatok
ajtót
##ronikus
nehézségek
##avaz
Konferencia
komprom
Jon
jele
##vén
Bek
töl
debüt
pénzügy
Fed
ránc
##isszió
tán
megs
##éljük
teheti
Elt
helyszíni
elképzelni
mozgást
leggyors
antib
##54
##döntő
##érni
formát
tartása
termeszt
##empl
##adon
##engés
##vállalás
hétvégi
csatlakozás
##emping
##inf
Beszél
tanulmányok
##ves
agresszív
Zsó
dönteni
##adós
bog
akarod
##csillap
végét
letartóz
##ségével
##itási
termés
##addig
HP
EUR
rajtam
gyakorló
##köv
##ÜGYI
deleg
vizsgálja
##adtak
##váz
##zetek
Tartalomjegyzék
keretein
függvényében
##fc
##bont
kirak
##09.
viselő
valamiféle
##hullám
gratul
nyomd
adható
##ességű
funkciót
illő
##avédelmi
fogadni
szolid
épületet
##ÁB
##estert
állítják
segítségét
doktori
OL
##őlap
##gyógyász
##hegyi
##utatási
panel
releváns
jogosultság
futott
Rendkívül
##áik
##vegy
##értő
51
##hatták
törekszik
##ötték
##önyvet
##szöveg
standard
##iptomi
elfoglalt
nyomtatás
tervet
rejlik
##vide
##uszi
##alizálás
##ossága
##etti
kli
látok
gyermekvédelmi
akadt
##alni
matematika
##kodott
képviseli
##eszik
Valóban
Mindezt
aludni
méterre
mark
Mindenesetre
feltám
gur
##működés
##ülék
bizottsági
adatkezelési
##ogyor
Érint
##őrös
képe
válogatás
Mintha
kivet
okir
##ezzünk
##funk
##yr
##weis
##ape
rand
hármas
ÉRT
fogadott
csoportban
##áttam
alapj
0-
vagyont
##elnie
keze
Play
##álását
nád
dolgozom
##örténet
használatos
eltör
pajzs
Üzleti
Páp
##oton
##ítendő
##úv
Sw
bírság
kérlek
szülei
##állást
Sió
You
súlyosan
heg
##formán
faluban
Sokkal
támogatta
##epes
süti
délutáni
hülyeség
átlátható
küszöb
festmény
szükséged
Tulajdon
).
oldalát
dollárt
##lit
video
szeretnek
Előre
##zenek
lehetőséggel
4-5
Élelmiszer
élén
abr
előforduló
megállapítás
hatalm
##kozott
válaszolni
ébred
##:00-
másokat
séta
##92
fordítani
hatékonyság
aktivitás
melyre
Utóbbi
##úció
bankkárty
hozzájárulása
BL
rizs
##ágott
gömb
foglalkoztatási
forrad
##modern
igaza
INFORM
Hegy
##uknak
farag
/&
##TART
amelyeknek
##arr
vendégeket
enyém
##öpr
##ájékoztatón
propag
görcs
##enk
maradvány
vendéglátó
kötelesség
Willi
keresik
##agi
##aná
##szom
legerősebb
##őzni
vén
stadion
nyílászár
##ésszel
NEMZET
Miskolci
KÉPVISELŐ
##EX
benneteket
megőriz
identitás
felülvizsgálat
földgáz
##hajó
##íva
Főleg
használom
Márk
##usztria
##jaim
##udio
időz
##:-
történtek
##kim
Magyarországot
kál
alma
##LAP
emel
pecs
adjon
hallat
finomság
VERS
EGYETEM
állati
##hom
töltő
légit
##rófa
##ásnál
használatra
##jétek
témák
##ezlet
szűn
##gyermek
demonstr
fejlődő
##cer
átlép
fényképezőgép
magáról
íze
##vall
közelben
##ier
##õen
irányítása
igazolvány
végzettség
keletkezik
WC
##work
előttünk
árat
##91
##ségesen
amennyire
##62
férf
##ájk
##szerűs
megnöv
##óti
folyóirat
##agon
##helyiség
##füm
tanterv
##észe
fark
##számla
Megállap
szükségesek
SZEM
PÁLYÁZAT
##gyűjtemény
szénhidrát
merész
képessége
##gomb
használatának
##csatorn
mindenkor
fejlődési
felgyors
##EB
##ítottuk
alj
##nye
Holl
##eimet
##anunk
##áival
istent
váltott
December
##öttünk
ponttal
megöl
üzemeltet
józan
Bill
rovat
##öknek
épületben
Előadó
Ünnep
önélet
óvatos
földszint
szerzője
máskor
##hattunk
tevő
megvalósítás
okot
felhasználási
##betegség
##ida
##ulásának
##kísér
zón
iparűzési
igyekeznek
May
napirendi
##felm
##azek
##pir
##inter
gyűrű
##feladat
##fikus
hangzott
sikere
kegyetlen
##epr
##ástalan
##zésének
lezárt
munkában
##ítania
kijelentette
Főosztály
##nó
legkor
videók
Tánc
szíve
##ık
##ecske
Szűz
pilót
##szerû
Szabadság
figyelmen
##fert
##dh
roppant
napját
felszerelés
közérdekű
##vebb
egyeztetés
spirituális
##ezésének
##press
##isztika
##ancsol
rejlő
##epl
megkezdés
háborús
Befektet
hosszútáv
bosz
szervezetet
ügylet
zárva
afr
##hassák
örökbe
kialakulásának
##oxidáns
huz
forintért
Kedv
hatásai
##csillagos
másikra
##oot
olv
mérés
finoman
##uri
merre
brut
selejt
szarvas
szoktak
kiskorú
aktu
##ugró
Polit
Közlekedési
##ted
zavaró
##5)
elvégzése
fájdalmat
közzététel
prezent
ajánlatok
erőforr
fokos
naptár
inz
##gyűlése
másnak
meghibás
befejező
kisebbségi
##oval
írják
határozatot
elmaradt
emberrel
váltó
cukrot
szélsőséges
adok
napokon
Terület
##félek
Posta
fehérje
bankszáml
##rendezési
##ámoló
szövetséges
robbant
részek
előfizetői
menjen
##iness
##urd
elkezdtem
International
##érvény
##vatart
idejű
##ablak
leves
felmerül
##fűt
élőben
differ
##echnikai
##sziv
festett
szabadságharc
160
##unkhoz
##Csak
##ase
Lassan
##ifor
hatályon
megalapozott
önbiz
támogatni
##ádat
megelég
formáját
elemi
##pénztár
véleked
anno
lenyűgöző
programmal
üzenetét
##iotikum
drámai
##amer
eleven
##szervező
pesti
tanácskoz
essz
Kérem
haver
erejéig
elmulaszt
##pontot
ÖSSZ
##Nagyon
##UK
lomb
Nik
fenntartása
Szt
Újra
##iti
##áta
Dezső
megal
##szentm
munkájának
találjuk
amelyekben
##idegen
kiür
##TEL
szabadidős
földet
elszak
##finanszír
szerzetes
kamasz
det
állag
indokol
találkozás
bemutatja
iszlám
elmély
megdöbb
fúr
tapasztalattal
megengedett
megközelíthető
kongr
olvasmány
##gatja
Komárom
bejelentett
fejében
retteg
fejlesztésére
evol
divatos
csináltam
War
##ványos
Szegeden
sab
Lor
Energia
szabadidő
##kedik
##ációra
Ingyenes
fenntartja
##ésük
eszköze
benyújtani
ráford
##ps
kórházi
létrehozni
felügyeleti
Szovjet
##egl
tat
##51
##ságában
Komp
feljelent
torna
használtam
##iként
Ilona
##ira
##ponttól
##%,
nemzetiség
##ságára
Napjaink
##bit
Real
téri
léteznek
eredményét
kínált
alkalmazzák
##ys
tartalmat
##61
arcát
érni
árut
Június
nyolcadik
visszatérő
szembesül
meccsen
##ehely
naptári
rendezik
Madrid
Super
kihely
##22_
##ságnak
tenyészt
vizsgálni
XXX
Bővebben
Facebookon
##szabású
adjunk
XL
nyomtató
adtam
##olások
##atmár
eleinte
szokták
NATO
túlzás
ug
##ergom
kabin
##ogás
West
felr
kicsiny
##cuk
költséget
80-
##eső
átgond
hírlevél
##áva
kivizsg
Megt
##ádár
várm
##ásaink
##pt
Budai
##IKA
stílusban
##lói
##Európa
##________
##hellyel
Bizottsága
##osp
tizenkét
központja
##iába
Maj
Esetleg
elvon
szakács
##szót
##500
testet
működni
munkab
##vidéki
##PONT
tartozék
bérlet
igazolni
történetében
áf
literes
FOR
##köre
adódóan
Csongrád
krónikus
hidrat
órákban
erőforrások
Ennyi
Ausztrál
##jain
##uzsál
kihúz
Gyászoló
zárja
AJÁN
Vissza
Lengyelország
Mez
Törökország
nyilvánvalóan
##ermelés
##abbi
##rális
Emiatt
baja
mégiscsak
MP
Kod
##osult
kormányzat
kertben
kötni
##oment
lépéseket
##eter
Tolna
eltérés
##aras
##szekrény
##űvé
toler
becsült
##esterek
##NAK
##04
elkészített
tark
plakát
tanít
Hirdetés
##riai
##izikai
1956-
Ferr
családot
művelt
gyerekkor
rendszerrel
szombati
Fenn
hossza
##zatos
hatásos
##veszélyes
Dem
##nát
hirdetések
bir
Kisz
szikl
egyetemes
##nyomó
világhírű
##ico
pas
fész
Település
Másrészt
##53
##árius
államok
##értékelés
##orosz
történelm
atya
állhat
panor
Azaz
##ÉM
Lin
##állat
##orszag
AS
Törvénykönyv
##ömör
generációs
Demok
52
élelmiszerek
##/2010.
labda
##komp
kapaszkod
##ugor
baloldal
aktívan
elsej
hoznak
##edékes
##élmény
születtek
Február
Fülöp
gyorsaság
tevékenységének
##03
megmagyar
##rof
##erőmű
egyéniség
jubileum
wellness
szók
##eddel
szimbólum
próbálják
##].
##OLYAM
##vóvíz
XIII
HR
##isten
cell
##/2007.
Tervez
kimenet
foglalkoznak
grill
##ywood
##lent
##agok
Szekszárd
Szerb
valóságban
tárolás
##odása
adapt
kedvezőbb
írtak
grafikus
szabadtéri
Lég
Melyik
pszichiát
követelés
##viselők
akikkel
egyenként
elõtt
ang
kompromissz
##izgalmas
keletkező
LEG
ezelőtti
elvégzett
sose
##hetőleg
szívem
Ptk
élől
Civil
ránéz
megélhet
folyamata
Let
##betét
illeszt
garanciát
Ba
##estek
kizárt
megőrzése
##adarab
zarándok
fotót
HIVATAL
társaságok
hová
ötletet
##-(
As
főre
csatlakoztat
utó
keszt
leköt
gyógynövény
##kont
FIGY
Mercedes
hozzád
dráma
Megrendelő
MS
##udatos
időkben
legyek
mérkőzésen
##orz
##mély
harmóni
felhábor
költészet
##edbe
leck
##zek
Kocs
radi
vetélked
erőforrás
akartak
bejárat
KÖZL
végett
célokat
jogosultak
lefoglal
magunknak
mérföld
győzelmet
esetlegesen
kand
##acsonyabb
##over
ajándékot
anyak
hírlevel
szívében
tanévben
##LŐ
depresszió
57
kinyom
Annyira
Ep
ráb
külügyminiszter
Számomra
munkára
FC
pörg
Corv
kísérő
színt
felajánl
sót
##hús
##ükbe
Erika
teljesíti
Kil
Dor
teremtett
teendő
színvonalas
Őr
ecs
barátok
tagállamok
köztud
döbb
egri
puh
öreged
kimutatás
##8/
tapasztalható
képzelni
rezs
szokások
##piacon
##hajtó
ruhát
részesült
elszámolás
szenz
befogadó
mérkőzést
influ
hibrid
##eletet
csalód
szervezetben
eff
##atin
##váltó
kapcsolatokat
ideértve
hu
##lapok
forintra
vásárl
##ions
Deák
lej
72
ty
mindenesetre
Hu
##TIK
megjelentek
Angol
##amely
##zenei
##ártól
Apr
csisz
Biztonsági
##ado
lapos
gra
tízezer
alakulása
900
örökké
válaszokat
qu
Digitális
miben
mozgó
járat
életemben
ezekből
problémája
Alt
korlátlan
##ATI
Frank
lépnek
gyilkos
másra
falusi
Törvényszék
tárolt
esztétikai
partnere
legrég
előnyt
##.1
##Már
##inkre
neur
tervei
ökológiai
##anat
Megbíz
Kupa
összeom
elker
célunk
##ideg
figyelmesen
nyomja
jeles
megválasz
##öltés
Csep
próba
riv
őrült
##SŐ
melegít
##ALM
##múl
aratott
MIND
menő
##tur
válni
##ecskeméti
jogait
Napi
személynek
elal
##itással
ismerem
Peter
##igh
megújult
##EREN
##ózó
sürgős
ba
Thom
benned
otthonában
##ELÉS
##entes
veszünk
termő
kórházban
Csod
viselt
##hab
Matt
##ítógép
harang
kerítés
időpontját
stim
beszélgetni
XI
##TATÁSI
szerető
mulat
matrac
adva
##ákba
as
Los
Vilmos
##amis
konkur
Üdv
##közvet
Regisztr
Információ
felzár
készülékek
derek
köp
üzembe
költségeit
születési
növekedést
##ll
##TESTÜLET
tegyen
Ugye
##dioxid
puszta
##ukon
SZERVEZET
kötelezettséget
LX
##aza
korrupció
indulnak
gondolkodni
amelyhez
jelentik
kongressz
fasz
rólunk
menedék
##csont
nk
tájékoztatása
##méteres
idézi
##rí
##ettség
színvonalon
termelési
##melweis
lent
köztársasági
##hű
NEV
meglét
##jaik
játszottak
tapasztalatai
##52
##utyin
szimpatikus
Harry
székely
napközben
vezérlő
védelmét
egyetemen
tőzsd
gyümölcsök
##ányok
##ecz
Szom
##asy
relatív
cirk
kialakulását
##urált
Zsuzsa
olvasás
metsz
biztonságban
körm
##úri
névre
művek
Kötel
tárol
célkitű
ösztönöz
·
szemszög
Helyszín
##vájc
koh
..
##krit
Svéd
‘
##adással
gondoskodni
kivételes
##izgalmasabb
##color
##ulásra
EK
rámutat
hónapra
amennyi
Nat
szedni
kerületben
rövidített
kedvezményezett
##iók
##razil
parfüm
iskolát
biztonságot
##ődött
Vide
értelmes
álljon
##ELÉSI
dolgoztak
értesítést
jogcím
Miniszterelnök
vul
adódik
Rud
szavazat
futás
falat
sárkány
##falak
magány
##Kor
##ajándék
láttuk
lemarad
betűk
Második
igyekezett
letilt
Csatlak
MA
jogokat
##vesztés
tányér
biztosítva
hallás
Kamara
légitársaság
Ös
Tíz
elhúz
eljött
kalcium
foglalkozások
##eljék
##lé
alelnöke
eldönteni
Len
elkészíteni
többségében
##ikos
vonalak
döntéshoz
##hattuk
vallásos
Klin
##gyulladás
##ane
érzést
páciens
képregény
elképzelhető
vitatkoz
##UTATÓ
automata
dús
tudósok
méretben
konferencián
exkluzív
osztályos
pszichológus
kacs
##VH
##értéke
##parancs
##honnan
városa
Összességében
gyártási
##eltük
##.1.
gomba
palot
valamiért
Batt
Egyipt
##15-
Teréz
Előfizető
fe
kok
magadnak
##mens
##VÉNY
kétszáz
kider
félnek
##59
##almasabb
Táv
terj
műhold
##yd
##DNP
VIZSGA
Mr
szappan
építészet
járok
anyagból
mosolyg
##zsa
Hor
##edtek
Szerinte
hibátlan
adóév
csata
##ényeg
##hatósági
ugyanezt
##lista
1990.
Barcel
##bajnokság
lehetőségeit
érdeklődőket
##eremben
##ismereti
##ítésében
rendjéről
analóg
kiadása
jelenléte
dokumentáció
##adót
Megjegyzés
##SZAK
##kezik
##02.
megvalósuló
##reet
erőd
work
##info
tömegközleked
Ady
ml
konflikt
##álásával
##itkár
##ingatlan
##szerv
telefont
beszerzése
Semmelweis
##hagyó
##adtam
zálog
##05.
##eljenek
##alkalmazott
Születési
kecskeméti
##unántúli
tartozás
##használati
##oteráp
##őrök
lapok
helyezést
egyiptomi
munkaügyi
##érzés
Reggel
felsőfokú
bocsán
jöttem
##nb
bejegyzett
olajat
Férfi
irányú
vidéken
szorul
Da
esélyt
alatta
bővebben
megismerése
##álód
ismereteket
felelőssége
továbbfejleszt
vegán
##szeml
Nád
csász
lakik
docens
évtizedes
##NEK
##ometr
SZOLGÁL
Lőrinc
kimondottan
felhasználni
elállási
zseniális
kérdésekben
Hány
vállalta
##ruh
előrehal
jogról
céljára
Pus
##ögz
vász
fenntartó
állampolgárok
##aló
parti
nyarán
helyezi
##ING
AC
Következ
bővült
##utatók
webshop
##ítsék
fejezte
lakóhely
##html
##zettel
##eher
ja
##ogatja
##eo
boríték
működéséhez
##LEN
részesít
probl
hagyom
Románi
jogosul
zeneszerző
##má
##mik
ellenőrző
Bad
legizgalmasabb
jegyet
Összefoglal
##eff
nyitó
All
kitér
keskeny
egyoldalú
kedvezményt
##MER
Sol
akarták
minőséget
elmúl
próbált
##ebbé
allergiás
##ődik
sorrendben
díz
felbukkan
írott
Tég
ISTV
Vikt
##.2.
keverjük
Tizen
Feltételek
antioxidáns
zenek
fajok
voltál
legközelebbi
##ogni
árvíz
mutatkozik
visszautas
GPS
red
manipul
Für
használta
párom
cáf
ügyekben
gramm
##ettet
főút
rendszerbe
Kormányhivatal
##kkv
DNS
kellően
pénteki
66
##ográfia
##erdő
tedd
##fiatal
fontosak
Kbt
##gátló
értelmezése
##Fotó
vállalkozók
átél
101
Friss
Székesfehérvár
AB
halvány
rendezték
##együttes
##==
voks
levelek
##most
eltart
Szen
kockázati
hangszór
célzó
##elői
refl
spont
##58
##ológusok
##MSZ
##ender
Bibli
EB
megjelennek
fogyatékos
gyull
könyveket
##emier
felépítése
##izációs
folytán
Bizonyos
megszerzése
tun
borv
értékben
dolgozat
alján
ISTVÁN
VAGY
értelmezés
bizonyított
tudatában
közepette
##motor
összetev
ellenőrizni
##ásig
##sw
##ezek
jónak
mellk
TANÁCS
Szerkeszt
felismert
kiszolgált
Alkalmaz
##mb
szu
vizsgálati
kidob
finanszírozási
##TERJ
##házat
gyűr
Tekint
##kört
bekezdésének
Társadalmi
kérés
##energ
##őlegesen
afrikai
Tehet
##eibe
Csakhogy
##eto
##tábl
##iális
##03.
##ttá
##terem
kiment
megtehet
Találkoz
##unior
radikális
megállapítani
káposzt
Po
##tábor
##gatta
változt
rabszolg
hozzával
##kultura
tartózkodási
1500
67
##várium
##ázva
összeállított
1.2.
Ezúttal
##ĂĄ
gasztronóm
##pill
egyhang
tartalommal
##termék
60-
Heves
##ültekint
Minőség
##DR
VERSENY
##TAN
százalékot
##akadt
kemping
fejlesztését
iratok
##tervez
objektum
dolgoztam
elbírálás
ismétel
merény
Res
Elfog
akkredit
Márta
AR
álma
elveszett
Óbud
##Zs
lib
árus
visszafizet
##adásának
tárgyalások
szerelmi
görd
magasan
általad
férjem
gyerekekkel
művészek
Kong
##álásra
Utolsó
illata
használó
Nemrég
##ady
legd
eseményen
igyekszünk
art
XVIII
némileg
##MAI
begyűjt
privát
##mezővásár
##ONY
Et
Akinek
édesanyja
döntöttek
TÁJÉKOZTATÓ
legegyszerűbb
##/2
táncos
Doktori
támogatását
##képek
tartás
Kolozs
##ékenység
##pot
előnyben
##yan
Mindkett
közoktatás
CO
EZ
Uram
bűnöz
kötelezően
defin
##sburg
visel
##vezetői
elismerést
pers
rendre
molekul
##senek
megít
Kir
feliratkoz
##hanem
##oritmus
koncentrál
##vaj
pszichológiai
igényeit
##ÁLLAL
utols
##olcsóbb
írva
##ding
elhíz
ösvény
mosd
beköt
hozzáállás
##hessék
##LA
súlya
ISO
##ázatos
csöp
láthatatlan
##álók
40-
##vissz
boltban
székes
##indulatú
##esemény
nagyrészt
50%-
mitől
dizájn
sztor
teljesítményű
130
##ffy
##obal
szöveges
hiszi
csemp
jelzett
vágyik
##eremt
ránt
kompatib
érdekesség
hétre
##asszus
##életes
Rendelet
kormányt
##oztuk
feladatait
Igazság
Közl
szabályozza
függő
Ausztria
megoldható
megbocsát
kapcsolódóan
régebben
beállítása
minőségben
kazán
keserű
##szok
Lel
##teljes
##Hogy
diktat
Szeretet
képzést
másokkal
leáll
##féleképpen
válassza
##,,
megismerni
páncél
Mor
2003
megismét
##essünk
##átlan
kipróbálni
forgatás
munkánkat
újrahasznos
##04.
##vás
##tabb
Partner
##.2
##dési
mapp
##ezeti
merült
frissítés
##plik
növekedési
##erjesztés
államtitkára
nyitotta
éttermek
##ímer
térségben
##eszterin
szóvivője
röp
),
karakterek
##?-
##REND
##ósok
hihetetlenül
Üzlet
##jaira
##gazdálkodás
csillagok
módosító
röhög
##ÖLD
##DK
KSH
döntet
Épp
jöjjön
hívták
Felnőtt
1.)
##almasan
mutatjuk
farkas
##upán
dalt
legt
##hallgató
Szellem
##medenc
##gyerek
zenés
info
fentebb
##koló
rivális
savany
Vasárnap
alapszabály
dimenzió
Takács
##gyűjtés
matematikai
##kodni
ifjúság
szigor
megköszön
arca
##úcsúz
társul
Grand
eltöltött
##ÁRA
tanultam
BKV
tudná
ivóvíz
kifoly
Királyság
haladt
53
szabálysért
Norbert
életvitel
közönséget
közvetett
duzz
megszületett
egészben
kilométeres
érettség
csupa
érdeke
döntöttem
ADATOK
váltani
Wal
##ásmód
titkár
##lety
tartok
##alapítvány
##ui
##eon
pontokat
##Er
modellt
##Most
##oljon
##/201904
ellátására
##":"201904
Győri
##zim
##övidebb
helytelen
boh
bord
non
kiszab
kilátás
tisztességes
hetekben
kitűn
szakad
reményked
Dal
AA
következőket
##adom
##okért
helyesb
koránt
##ÉBEN
1)
fik
##GA
##ject
##órás
ellenállás
2019-
##izálni
rangsor
részleteket
##nkat
Norm
##kony
##étellel
adatokkal
HA
említ
vezény
gyártás
szolgáltat
Különleges
bolond
személyében
##IÓ
gyalogos
##üf
Belső
##cker
idejében
kórházba
TERM
alag
##lini
előttem
##pg
5000
Ottó
##ground
##ria
##burkol
##ogatta
megálló
veszélyt
##doboz
##field
eléréséhez
##pszich
próbálta
##éren
Valak
részvételével
##szün
##angy
##akod
máshogy
Média
##23_
##csin
háromszög
szerződésköt
milliárdos
##etty
Dar
##áli
Vinc
előadása
jelentkezés
magamat
Audi
írást
bevonásával
protok
turb
Manapság
cserélni
##nás
##azaz
ismertetése
fah
Univers
demokráci
Lukács
asztalra
találnak
mostantól
##mad
Me
csoportba
##észlet
Római
##kezni
döntéseket
##auz
eltölt
##onim
kezdenek
felhasználható
##ito
hiányzó
kisgyerek
tolm
##egyházi
kimagas
küzdött
ügyet
eseményt
1998-
##híd
##ettél
##halom
kiépítés
Senki
amibe
rendelő
híre
2001.
társadalm
képességek
menekül
munkanélküliség
Hozzávalók
úszó
Igazi
rok
##ukleáris
##ips
##aiba
gépkocsi
##tény
202
összeáll
##jüket
helyreállítás
”
##kiállítás
##baj
kanadai
Bul
##vállalkozások
Július
##jánál
tejet
(6
végrehajtása
textil
minősített
##főkap
szelíd
##noki
televíziós
felvételt
##aműv
##templom
elbeszél
alp
prefer
szerződéses
módot
##találkoz
társulat
szir
##optim
legnehez
célokra
szükségessé
harci
elkísérik
kapus
tagság
Igazából
Fogyasztó
##ATOK
lik
ünnepélyes
##12-
jóvolt
ügyfélszolgálat
Svájc
##anéz
##ulyás
kötvény
fölös
##fl
##felelő
##erto
macska
pilóta
##rén
Cap
barokk
megvolt
tudnám
ahelyett
kompenz
KAR
##57
##itől
Washington
##ozói
Beteg
csónak
##kiadó
##ien
Őt
##KÖNYV
##ME
##este
kerám
##ényes
kórus
##outube
folyamatokat
Ügyfel
tekintély
tob
pazar
dolláros
gazdálkodás
##den
##érmes
kérheti
ostrom
következményei
vélemények
főhős
##orba
oldalakon
lenyom
napvilágot
##eszánsz
pihenni
dög
kívánunk
külföldre
alapok
ilyenek
mennyiséget
##ĂŠ
legalacsonyabb
Alsó
korú
kompoz
mindazt
megállapítható
hinni
George
keményen
Mess
##osságát
házast
##venti
vettük
ellátások
opera
##amentes
megnöveked
tapint
Fest
jelszav
##ponttal
##alisták
technológiával
##ivitás
##max
Zal
##dán
nőket
##OLÓG
fát
tragikus
##éséért
meddig
tehetünk
Donald
##ix
##árral
zsíros
Szilárd
oldalára
költözött
rendbe
jártunk
Group
style
követik
valószínűséggel
Előbb
pótlék
logisztikai
##tte
Do
##ocsol
##jébe
lehúz
újrat
##lesz
terhes
Franc
##omor
sportt
##po
##8-4
folytatása
Amerika
aligha
##egyeztet
évezred
##ársak
gyep
Szó
##azekas
kereskedő
Agrár
elnöki
fellépő
tagjait
##kincs
##hatna
szemem
vezetést
1997.
széri
honvéd
tiszteletére
Bu
erőtelj
Művészet
csapatban
##ASZT
találkozni
58
##bíró
Sil
sora
##hozott
javítja
öntöz
kizárólagos
tegnapi
hazugság
Jók
elérhetősége
keresek
alkalmazását
KON
mondván
gyönyörköd
szeptemberben
kedve
javasolja
##ékben
bekerült
##őkben
differenci
nak
kialakuló
##életlen
építkezés
vibr
fordít
Menny
##4,
képez
##bur
áttör
110
eszik
Informatikai
##ote
törvényjavas
tartózkodás
szerencse
laza
csapatnak
vag
##uka
letelep
megel
felhívja
képezik
kialakulása
##JEGYZÉK
gondolata
feltételekkel
jóvoltából
##elli
fejlődik
Szeretném
GB
törölni
nagyszabású
Tour
##TÉTEL
pip
történetének
báty
Honlap
lakói
ll
legolcsóbb
nagymértékben
rendszerét
jellegűek
##my
##kés
helyez
mindennek
választása
##inst
halak
Brit
ellenben
##elhár
Bos
éjfél
PS
HOGY
Nyíregyháza
##................
elkerülése
menyasszony
##iskun
előleg
sokaság
szennyeződés
visszaél
Rol
##helyre
irányítás
##anként
körültekint
csapatt
időközben
tejszín
##ive
##mosz
gyakorlatot
fizető
nyerj
testre
kérdéses
kiab
jutalmaz
##zetet
innovációs
kompetenci
##”)
##ÁND
##ottsága
balesetek
##latban
területeket
menti
ac
Ázs
növelni
öbl
terápiás
netán
Szilágyi
előkészítő
felejthetetlen
szerkezetben
Gabriella
MAGYARORSZÁG
##CSOL
bizonyítani
csirk
hirdetmény
##éra
listát
szolgálnak
életüket
Elektronikus
tanúsítvány
beszerzés
Isz
##ényszer
azokban
##itte
légkond
folyékony
kedvencem
helyről
lic
Jakab
jogalkot
##sokára
##láv
titokzatos
jelleggel
Ugyanez
filmje
töv
alkatrészek
bevételek
Baranya
aranyos
alkalmat
közeljöv
Különös
elmondható
szubjektív
glut
domain
csoportja
##kok
lányt
mögötte
alább
törőd
Part
vonult
alapot
ausztrál
kockázatot
##kínál
biztosítunk
hátterében
##iterrán
kétféle
célkitűz
fűződő
##eszes
épülete
Másnap
##JE
##csökkentő
ügyes
Ellenőr
birodalom
cik
ázsiai
mozdulat
rendezte
esetenként
##olat
Alapfokú
ord
halált
##iszi
Gondolom
dl
vehetnek
hám
világába
fokon
##inta
##hetne
##ettan
rept
memória
tükrözi
napilap
napról
Statisztikai
megszeg
##bányai
módosítani
feltéve
##TÓ
szír
Fejér
##iskolci
reakciók
idı
telik
hallgatni
Hód
háza
70-
TH
76
régészeti
##számát
egyforma
##gyártó
szekt
okán
üzemi
adalék
használatához
Dénes
lezaj
számmal
szükségem
felkér
testt
közigazgatás
##éseken
kiírt
Top
találkozhatunk
##ife
Szovjetuni
motort
hiszt
fentiek
nt
MUNKA
lecser
Legy
##pályás
##apott
##áljon
##ikban
rengeteget
esélyegyenlőség
meghajt
##etjük
könyvt
integráció
támogatással
##ezon
Pozs
##ugg
##anom
1.1
dohányzás
Kist
##futó
adób
módszerekkel
orvoshoz
Elm
MOL
Huny
Este
Kre
##úló
Kádár
szerelt
Elkép
társaságában
nagyváros
kórok
igényeinek
igazságot
##obel
igényelt
Bíz
140
mélység
Java
Mári
adókötel
##lottak
hetet
Nekünk
##kibocsát
követve
Kattint
tárgyakat
megtév
közismert
megkülönböztet
##körül
túlsúly
Polgár
amelyről
büd
##och
##őlt
UN
mérsékelt
apróság
csendben
Forr
pánik
##einknek
látnak
##OC
behajt
Londonban
célját
Zalaegerszeg
BET
Olimp
##fájás
##SZABÁLY
td
zok
Cégünk
Nézzük
forgalmazó
módok
Ismert
létesítés
##áin
Halál
tévé
emeli
készítettek
##tol
Ass
JELENT
megkapja
com
##3-4
dil
Jul
hadd
gyakorol
##óból
Cent
itteni
##/2008.
kétharmad
##liget
Románia
irt
megszáll
sátor
NF
ort
##bot
##választás
korrig
##magyarországi
##via
serk
ellátni
##rin
##akez
elősegíti
novell
##HOZ
támogatják
Fizet
energiatakarék
##atunk
##irányító
élen
tükrében
januárban
##aválaszt
kisfiú
optikai
3000
budai
kortól
harmon
jogorvos
tartottam
megfigyelés
_
behat
;)
tulajdonú
kiállítást
##enge
##dőjel
köly
Pszich
rendet
metal
képzésben
PAR
beszélek
Debrecenben
nit
##inárium
hozzájárult
meghallgatás
bur
##omnak
kiván
cigar
##/201903
Thomas
autópálya
válás
ta
##":"201903
##Kiskun
Össze
kattintás
fokú
henger
ötvöz
eurót
##opter
kioszt
szólni
KÜL
tradi
tojást
fiatalember
bírja
elnyom
énekesnő
kedvezőtlen
Hatalmas
he
##indró
1992.
szervezete
but
folyóir
##acsk
szavazás
azelőtt
forradalmi
##tran
##ókör
Kett
Egyelőre
halász
alkalmatlan
##áti
##kapu
vitték
Od
##friss
begy
értékrend
elképzelése
MŰKÖ
kémény
munkám
kenyeret
megnyitó
olvasóink
##entem
lila
##rendszere
koncertet
nemrégiben
Vajd
tétele
59
Vigy
szegmens
fegyvert
szenvedés
telefonos
Szakközépiskola
irányítja
tájékoztatni
##atch
##ings
jogszerű
agyon
soros
titeket
07
RTL
##osztalg
szenvedő
válaszok
##apír
levegőben
Hálóz
akciós
asztali
##kötet
plety
BESZ
##színvonal
Ra
tásk
zsírsav
Attól
##szerkesztő
Tegy
##ezmény
játékokat
##kik
##méret
Bíró
##igo
##kár
Tár
##!),
##ínusz
megfejt
Cal
fill
##amban
Egészen
##ardi
MELL
csöv
Ser
párhuzamos
tájékoztatta
Ezeknek
##utc
##metsz
szerve
##dést
##személyes
##halál
kérek
híz
szőnyeg
helyezte
63
Camp
ellop
gyermekkor
##by
Szár
csarnok
Kínában
bevezető
##uki
##allgatás
szavakkal
##megelő
2002
éppúgy
Ferencváros
##medence
veletek
tájékoztatót
##csöv
##raft
összetevők
antik
tematikus
##/2016.
##igura
szórakozás
sarok
##ogatási
elvárás
##VA
##lelt
##edtem
HATÁR
##ottuk
##901
kimagasló
elvárható
##illió
kabát
Annyi
##béli
##cikl
##nyáj
kígy
tin
##oltuk
megteremtése
hagyományosan
Alapító
hivatott
javasoljuk
meghozatal
kínálunk
Ik
PhD
ünnepek
helyezni
##nézium
juh
gig
szövegek
fura
##avics
átadni
szabadságot
##07.
pezsgő
##első
##hop
##műsor
szervezése
Pályázati
nővér
versenyre
perem
téves
##vetlen
egyesek
##assá
igényét
##keret
örömet
rop
vizsgak
szabályozási
by
100%
Dí
borító
hektár
különbözik
főzés
népszavaz
ijeszt
##valót
##űd
világosan
vedd
veszélye
rajongó
vezett
##úp
módszertani
##orék
##ilabd
##eser
Szeretem
átadott
##background
##ózott
közlés
##övetel
Közbeszer
##bbal
##záró
##érmet
kapjon
feltételeknek
##észettudományi
##cl
SZO
terápia
kihívást
frekvenci
keressük
állapotot
##izmust
rendellen
kapok
Hatályos
konyhában
Putyin
oroszl
##úrák
##ütés
elismerés
megterh
hajlamos
teremteni
garantáltan
egyszerűsített
Kos
##ÉSZSÉG
:))
Földön
ped
megkezdése
tisztségviselő
##ten
##öszön
eligaz
Evangél
környezetében
##VE
hatalmi
##ernek
kapják
##abron
KOR
mindaddig
kétszeres
alkalmazandó
##-6
##szintén
kád
hozzászólások
letiszt
##ime
indultak
##ósa
##padding
leghatékony
##odban
##06.
rakét
takarmány
mérési
Gödöllő
szakaszában
kormányrendelet
##Amikor
zöldségek
dalok
lakt
állapítja
kínálnak
minőségét
ügyészség
megbetegedések
egyezmény
##arsang
kep
hiányzott
legkevésbé
##HA
##edést
##endes
álláskeres
munkáltatói
erősítő
térítés
rozsd
fogam
##oi
hírnev
elmondja
kölcsönöz
##veszi
INFORMÁCIÓ
sci
##kanál
##/2006.
Telekom
##anc
##meleged
Szentlélek
sebességgel
kedvem
városba
hajók
mulaszt
##ükről
melyből
adózó
tények
##emplén
Mennyi
##ext
fordulhat
elmozd
hangulatát
elhelyezni
nevezni
##],
papr
alkalmazza
azáltal
befektetők
céges
ellátási
helyezték
küldemény
lift
Rog
##rus
##utya
Dzs
kalóri
##xit
szep
késed
##rap
erkély
szándékosan
##ihent
fakad
pattan
járás
követett
eladott
meredek
##oldalon
##span
győzt
háztartás
nyújtotta
viszonyítva
##lására
##művelés
időpontot
társadalomban
következmények
##KEZ
##stru
tudnék
ismertette
Szig
tudjátok
Elem
Bon
vető
néznek
állították
##fol
##száll
ÉLET
őszén
művei
##vállalkozás
kutatói
Beth
esedékes
##éül
tavaszán
alapelve
értesíti
11:
##krém
##rov
férő
amelyekre
##ÁRM
68
etikai
Sir
katasztrófa
szalon
spontán
##XXX
88
kapták
##bejegy
filmes
fűtési
okoznak
ártatlan
programját
##képet
kval
ajándékba
77
##öttük
mielőbb
mellékelt
Lip
belem
őrizet
logikai
beérkezett
5,
##ilton
Ernő
országból
##ake
tisztelettel
##íthatók
ismerni
keresünk
bővül
mindegyike
korcsoport
ML
##GB
lisztet
végeznek
##inda
##mely
##hettünk
elnökének
rendelkezett
hányad
Hús
##plant
jóga
befejezés
fejleszteni
1-1
értettem
élmények
##lig
konfigur
mindhárom
popul
tárca
összpontos
megerősítette
felzárkóz
gondoljuk
KIS
jelentősebb
Mur
ébreszt
módszertan
##únyog
megbízásából
szerkezete
küzdő
1980-
##folt
dec
látva
##ualitás
hardver
miskolci
90-
felébr
erőszakos
elérhetőek
közszolgálati
étvágy
##parti
jólét
előállított
##rive
##adják
Dolg
°
tehető
láttunk
aszfalt
##áspár
receptet
##hatóan
kíváncs
##ködése
##lással
kombinál
utcára
##rakész
valósult
##napja
rögzíti
muz
jobboldali
ragyogó
gyógyulás
##erniz
százezer
áldozatok
temetés
kivág
igyekszem
szend
Mostan
fórumon
inger
javasl
torny
köti
pontján
értelmetlen
kupon
ron
szpon
##mász
vércukor
szerek
torta
csökkenése
pór
Szükség
fordulni
##mp
Adri
átruház
Jöv
##.(
olíva
##enciális
motiváció
tudnivalók
rovar
amiatt
##szeretettel
ellenőrzi
hívni
csillap
PRO
06-
hozzájárulását
szakasza
##ugh
tartsa
titokban
fogyasztási
hagyományok
korong
tork
időszakában
sorba
gyereknek
megkérdőjel
TARTALOMJEGYZÉK
Tém
fokozza
könyvtári
XII
küldünk
idáig
##ánosan
funkcionális
Hungária
##ELT
##archia
következőt
##andra
##csepp
1970-
Gener
valót
jelentkezni
Ast
10:
Megjegy
funkcion
Erőforrások
##õi
##mell
##ozunk
Juli
Katona
gyümölcsöt
##bef
##díja
##nemzet
Gyógyszer
építt
kikerül
Rossz
Hozzá
engedéllyel
íny
jellemzők
sütőt
beszerezni
közbeszerzés
szimpl
##dődik
legmegfel
halálra
Ugyancsak
vágjuk
eszközzel
##gaz
##milyen
hangoztat
Marad
energiahatékony
##szavatossági
ET
nyomozás
##MK
befolyásoló
megtekintése
lebeg
eleje
államfő
##mikus
közéleti
##ázók
Válassz
megvalósítható
##ujt
tetszés
Televízió
köszönet
felcs
összerak
évtizede
helyezzük
##öre
Hull
cer
##ölés
jelenségek
##ödör
pályát
##align
bántalmaz
hőt
belülről
##eteorológiai
különösebb
##edési
befektetés
megmutatja
ellenséges
szolgálják
##szolid
limit
napelem
embere
írom
rosszat
gyakorlása
Nő
dis
Ty
kérünk
készítő
munkatársak
##5-4
##sön
##üldött
étkezési
lább
tenisz
3,5
algoritmus
Fot
várandós
hadi
##sikeres
me
vásárlási
##ize
AG
közműv
Husz
egységet
töredék
világát
felvált
boldogan
##emű
ismételten
alkalmi
tulajdonosok
##endi
találmány
##baúj
##ÍTÁSI
##enkénti
idejére
megakadályozza
##LAN
##émánt
norvég
Spanyolország
##isztelet
##központú
kezelését
nézd
jegyzék
hatásait
##áztam
antibiotikum
Off
tanulmányait
Folyamatosan
##08.
##elemzés
##4-4
SZAKMAI
tegyünk
Pontosan
ünnepség
önéletrajz
##hir
horr
##ernet
##ozásával
célcsoport
MAG
világnak
boszork
##aris
Vic
Médi
##egyszer
Aqu
pók
Vác
##ATKOZ
Piros
reagált
ajánlatkérő
lehetőségünk
stáb
időpontjában
##enza
kiló
OP
Csab
elnökség
lelt
leghír
menekültek
teszek
előzmény
Egyesülete
hívott
állok
hajtott
közalkalmazott
sorok
ismeretében
dikt
rendszerének
##LE
területét
tapasztaltam
eredménnyel
##ŐSÉG
alakulnak
körét
One
pokol
önrendel
maradhat
##entin
szelektív
lássuk
kiváltó
....
erény
##dr
1999-
mással
##áznak
##irányítási
cikke
##etesen
PÁLYÁZATI
legnehezebb
katalógus
ec
programokkal
helik
vent
besorolás
telepítés
igazságügyi
alapítója
rál
##esztin
nyomást
színpadi
mók
##megállap
##gazdász
##0,
fogalmát
panaszok
halálának
MELLÉK
tárgyalás
hozzáférést
szerződési
érvényben
##onka
dém
kezdjük
##klub
építésű
világítás
Enged
Webáruház
sivat
túllép
pontszám
##erben
kereszténység
##zatban
##szakban
találkoztunk
KÖRNY
legelső
címer
Valójában
megosztani
cel
##vics
környezetbarát
Hajnal
jelmez
##okos
Különb
kreativitás
##őjű
korább
keresési
csatlakozik
esetre
aktivál
tartandó
##értés
célzott
élvonal
szabályozó
Nóg
##testületi
gyöt
problem
teljesítményét
brazil
koleszterin
előírásoknak
##enf
vettünk
eladni
emelni
hagyják
logikus
Társadalom
##ítsunk
Mindegyik
kötelesek
energiaigény
ítélt
Sky
##iroda
trad
ültet
szemében
##édik
borok
jogkör
útnak
elárul
Újpest
##HU
##fokon
értekezlet
keresg
növekedett
##ránd
teát
pék
##tatva
##ekszünk
##ességre
repülés
##ekk
tüneteket
##néd
##jármű
##kedő
kiállításon
poén
##ekig
Kop
szerdai
##ôs
Tapasztal
##ÉRE
##öltő
asp
Neki
alkotások
Gáspár
Borb
##vényes
##éjén
##arján
##enetes
Harmadik
károkat
##TERJESZTÉS
##chester
térképen
Ég
line
kecs
leveleket
háziorvos
DI
kötelez
kibőv
lelke
csig
Heti
Hétfő
fenyő
élettel
birk
Gratul
Ga
rendelkezése
házaspár
##eidet
éhez
processzor
kac
##elhet
Tudod
##lődő
felfedezés
##rébb
Green
decemberben
Pint
jegybank
##ider
mióta
tükröző
##Itt
##ognak
elnyer
kilométerre
pult
olvasom
62
FELHÍV
könyvében
többszörös
##oldás
SZERZŐDÉS
##ôk
utalt
ÚTM
facebook
##olód
janu
##strong
Ipari
pénzbeli
tejt
Jean
lehetőségük
létezett
##}]
jövőt
Birodalom
bosszú
Kemény
Súly
Nemes
##enyő
Párizsban
##őrség
listán
csinálja
kávét
kontraszt
elvi
Ib
Kulcs
feltételeinek
##atúr
##ermében
##ega
lízing
GAZDASÁG
##akód
nagymam
szelep
tudjanak
keresés
##emellett
2/
Felm
##ázz
alany
##enna
nyomaték
minősítés
ros
##oban
versenyek
##végre
klíma
##labda
##artó
##adták
##munkás
korm
egyének
hétvége
##PA
Pilis
##agos
terhére
törlését
dán
problémái
fiatalokat
webes
adóról
etnikai
kori
forgalomban
együttműködve
utólagos
harmonikus
##enst
##csabai
végrehajtásáról
szállt
érnek
human
Teremt
megtest
növelés
dokumentumokat
##őkre
harcos
hangját
Gazdálkodási
##9/
##ESTER
enzim
életünket
##80-
hagytam
előv
veszek
##csaba
##izont
korlátoz
kifejezést
##maradt
kancell
társai
kritik
Kapcsolódó
mindennapos
##szeretet
felolvas
##Új
##nyelvű
##oddal
alkotók
fogott
találhatóak
##sunk
##extus
igazgatási
kifelé
tűzoltó
##akár
virágok
csoportot
intim
BEVEZET
ÚTMUTATÓ
Moh
értékelési
##FF
médium
XIV
jegyek
minimálbér
Áron
Innovációs
Gál
nyomtatvány
##Ist
elintéz
képzések
hátral
előfizető
faktor
váljon
Úgyhogy
##labd
Júl
##50-
CÉL
##aritás
und
##sztr
számokat
autonóm
látogatása
##kering
##iat
hajnalban
Vevő
kliens
ízben
nyújtja
elmenni
elvárások
KÖNYV
Centrum
Finn
##átsz
pénzért
elmagyar
##menedzsment
használatba
legmegfelelőbb
csillagos
##ware
írása
testsúly
költségei
kezelésének
##axis
##örd
Gyöngyös
magyarázta
muszlim
utazó
utasok
##szavazás
beilleszked
megtörténik
##.000
kiegészítők
kerestem
elvárt
fogalmak
szabálytalan
##álata
kezdetén
szerkezeti
##inam
inzulin
##honos
Többek
esküvői
teste
Center
papírt
segítette
Köszi
hordozó
bővítése
túlmen
motívum
Éjszak
Mes
időszaka
##nyitó
##egyedik
KAPCSOL
workshop
csinos
zárult
időnk
pontosabb
##őképes
magánt
Hill
jelöli
##ónika
szolgálni
korántsem
foglalkoztatott
portfólió
gyűlölet
##24_
Leh
tönkre
telefonszámon
(199
##ítsanak
##ovány
hajtó
lí
gyermekeket
##édelem
mennyiségét
módszereket
pus
csep
irrit
##aros
telepített
##LÉS
##ivár
##7-4
##sejtek
##aszolg
##elekt
tervezték
látogatókat
feljebb
fertőtlen
áfa
központjában
szakdolg
elemet
Pártoló
szállodában
adom
mínusz
hatáskörébe
##sőbb
kollégák
hatálybal
(18
LAP
zsúf
haladja
kiállítása
tervezése
alkalmazottak
forrást
Támogatás
műsort
incid
##cle
tus
##kedvez
NYELV
##otor
arányos
fontosságát
bíbor
Ajánlat
##kolni
vegyen
megi
##jós
lelet
technológiát
Étt
helyezve
javaslatok
##anod
##osztó
megmozd
##ardo
##természet
gitáros
Ajánl
ból
mágneses
##függő
JÓZS
kialakítására
csütörtöki
köznevelés
##5/
##17_
kirend
győzött
jellegzet
##űlés
Keszt
résztvevői
##isak
filmeket
jogainak
##onz
##iából
befut
galéri
időszakot
##kedni
szol
érvénytelen
##ÖVET
kiszolgáló
##észség
Angliában
##intézetek
zavartalan
##tervezet
irányul
pik
Puszt
##métel
fényében
családnak
segítőkész
##isztán
játékkal
Media
##keverék
fogadták
Természetes
buzd
BIZTON
kevéssé
Egyedi
hetven
listája
vezérigazgatója
százalékra
##OND
bűnt
##építési
Kiskun
kukoric
fejem
középfokú
ülést
Kocsis
mellesleg
##amell
betegséget
##6-4
kompetencia
tanított
##SA
GT
Keleti
tov
betör
Meglep
##70-
##las
##play
üzletek
##bab
MÁR
leadott
éli
##vásárlás
##ónusz
magányos
##ŐK
##löv
utaló
Egységes
##eai
##ciókat
köhög
számíthat
##ŐR
legenda
##árad
megmérett
feltör
átadása
Szeretettel
Atya
érsek
fejjel
létezés
ST
##odi
királynő
##FEL
küzdelm
próz
##költség
érezhető
elkerülni
foglalkoztató
megszüntetése
áthely
Het
építettek
hónapot
##ÜK
tűzi
feljegy
tervezi
okát
diszkr
pihenés
nyir
##érõl
nagyszül
fők
gazda
szembenéz
meghat
##izálja
pro
fantáz
gyengeség
##lef
kvíz
##fák
Bármilyen
##RTÉN
utazni
tisztító
egyenletes
kezet
részecsk
##ts
megállapította
##CE
1997-
sugall
mondhatjuk
##tlen
##közönség
Régi
##időn
élve
evangélikus
főiskol
Felhívjuk
főiskolai
leghíresebb
tömeges
Püspök
Vásárló
kompakt
kij
konv
Rak
készségek
leszámítva
Add
Labd
játéka
oroszok
NE
vallom
hibákat
##erét
##hová
##elünk
banda
##eitől
##imi
JÓZSEF
ajánlattevő
##azott
##EJLESZT
esetet
gépi
##tatták
##tudás
Láss
ultrahang
elősegítése
1:
kínálja
elektrom
##útra
##osav
hivatali
árver
nagyságrend
##atának
rögzíteni
kidolgozása
sertés
98
##idet
forduljon
Fájó
ápoló
kértem
##etted
##szász
hajnali
véres
##emeltető
feldolgozó
minősülő
megítélése
érzelmek
##erjeszt
csillogó
##-7
attit
kapital
éghajlat
##majd
jogai
rájön
kábítószer
##etését
ismertem
##PU
munkái
ellenérték
ka
elav
életminőség
##ste
##andin
##sárga
##árban
választó
##hatnánk
polgárok
##helyettese
nyelve
vegyük
elmondani
##kereskedelem
mandátum
távoll
ígéret
funkciója
edz
Csomag
csendesen
támogatásra
olyannyira
kezeléséhez
##CA
Veres
megjelenését
jelzálog
Nagykanizs
FELTÉTEL
Vers
kamion
jogh
##efánt
megszor
oldani
jövedelemadó
Mis
##uda
##olajat
##Még
##kov
##csúcs
moderniz
##ır
ellenőrzött
Szentend
inni
adózás
gabon
szoptatás
##interj
kozmetikum
##egély
találtunk
##ÁBAN
kezelésében
fordulnak
##ertek
##úszik
elénk
futni
(8)
hőség
átjár
SZEREP
##umban
Vér
gen
megkötött
##jelleg
##vénnyel
mérhető
rájöttem
használva
ismerett
reneszánsz
ITT
##ún
szüleim
főosztály
kérdései
győzelm
Speciális
Kata
vállalkozási
gom
rajongók
##enye
hegyek
##szigetek
Pesti
hangverseny
írók
[{"
előkészítése
##iforni
tulajdonjog
Power
##jan
buddh
##Európában
##hassuk
Stor
deviza
protokoll
győző
Anikó
írd
##kedett
##árat
##ódását
ütemben
parancsol
cukorbetegség
Nagyobb
##koriban
megterm
cic
##játékok
harcot
##imir
vitorl
tizenegy
Nok
##fejlődés
##ERG
CXC
##jpg
01.
##ségesebb
fejezetben
##zati
Beszámoló
haladva
baktériumok
##ítem
Cit
tevékenységi
Tím
##esztően
belga
##orozat
Roland
felvétele
Elkész
rehabilitációs
Sos
egymillió
élethelyzet
##ebből
10-15
együttműködést
hagyd
Levél
##ságáról
kártyát
nyíltan
mutatkozott
évfordulója
ól
osztályfőnök
1996-
Hív
##ertem
Ausztriában
##anár
irányított
##andók
fogadják
védelmére
nős
bag
##emelte
##kent
történész
auk
##ségére
Részvény
magnézium
repülőt
##elembe
megkövet
Egyéni
##csatorna
##OGL
##osra
##SI
##Tud
kontakt
lelkiismeret
Süt
Nál
hajszál
kifinom
érvényesek
##RÓL
sap
szellemiség
##TH
minthogy
nukleáris
szekció
zsinór
Móz
idézett
##oldó
Wil
feltétlen
kielégítő
##ipsz
##algót
interjút
okai
szállást
választják
nedvesség
##imális
##hűt
BB
##aknál
ÁR
Hagyomány
funkcióval
##pesti
apám
reflex
határozzák
##ölték
meghívott
##yl
léptek
fizika
szeretetet
##erővel
alkotta
##olos
Téged
##edéssel
nyertek
szervezetnek
##vill
Mikulás
veszélyeztetett
váró
tép
##teli
Feladat
2020-
azert
coach
megérdem
érted
szimbol
kialakítását
középpontjában
átalakulás
##apad
hiányos
MÓD
kiszolgál
##aljai
ÁFA
Leon
kimen
miniszteri
##90-
5-6
tradicionális
##DI
##álj
##zetlen
fejlődött
##FK
##oph
Sony
néhol
JEGY
járhat
indultunk
kapcsolt
##jelentés
##vendég
tiz
##ogn
vezetnek
magzat
húsvéti
iskolás
magukkal
##Ezt
lehetsz
folytató
civilizáció
##őképp
Közösség
Hun
magánélet
us
Részletek
##üldés
érik
üzenete
:(
##állítások
Mars
##orientált
##nöm
manu
nosztalg
##atokra
hibája
gyermekeknek
környékbeli
##rács
felületet
vizelet
immáron
beszélhetünk
javak
közérzet
MELLÉKLET
alakultak
sablon
darabok
középiskolai
##mák
munkához
##iszta
öngyilkosság
##VÁNY
Szír
kiszámítható
##oldalán
megérint
térítési
##átta
Szob
árakat
nagyvállal
##lelk
jelentkeznek
gondolunk
kockázatát
##készítő
létesítmények
##rendezés
szivár
bánásmód
erősítése
##oom
##meccs
képzése
megfizetni
##pektív
##ségük
##ezzenek
előfordult
##FOLYAM
gyakorolni
fenek
ring
legsikeres
definíció
készítenek
Nézd
##ole
megtekinthető
kulcsfontosságú
képernyőn
##–19
módosítását
##taur
DK
rajtunk
operatív
felte
állatokat
átmérőjű
eláll
nézem
##úria
Előfordul
fellelhető
lakosok
##BE
Eszköz
üléséről
helyzetek
kereste
##evél
##egyháza
##ETTSÉGI
kifejlesztett
vélhetően
használtak
Napjainkban
SZAKASZ
tábornok
tevékenységéről
újszerű
##KEZÉS
utakon
elejétől
##algótarján
osztályú
referencia
1989-
KÖRNYEZET
karc
emlékek
kredit
mintát
bírói
megmondani
##oktató
kanap
Erdélyi
befolyásolják
Szombathely
műveletek
hölgyek
tû
szűkebb
világba
kisebbség
Laci
##útor
alapjai
szereplői
rd
lemezt
viselet
12:
Kiz
állítása
intelligencia
##áknál
##ites
osztoznak
Noha
10%-
##axy
##ulók
aláírt
tulajdonosi
##felúj
táján
nevéhez
leírni
##dve
##szervi
nőknek
##afr
tomb
ellensúly
Vez
rendelkezéseit
##kifej
megnyerte
dologra
határát
Richard
##oston
évesek
##peri
érző
##ünkös
eltilt
részleges
csapd
##emin
ajtók
Közgazdaság
keddi
darabig
NYIL
fáraszt
elhelyezkedő
##gyártás
TERV
Reméljük
Twitter
ragyog
illeszkedik
kötődő
hangok
lejjebb
feltöltött
mutattak
beszámolója
##gyes
garantálja
##öszönt
csem
bevallás
Kristóf
nagysága
előadásában
##etooth
blogon
alkotása
felszínre
böjt
hozzájut
##órészt
SZAB
HBO
##közös
##õbb
##áncs
lélegzet
##utazás
betekintést
##ségeinek
##végig
hitelek
##oszláv
gondok
Jeruzsál
##gmail
##evesebb
##TÁRSASÁG
csapatunk
biztosította
sorsát
tulajdonságai
eredményeképpen
##amut
Schm
ötlete
Szakszervezet
basszus
beltéri
ura
nemet
termelők
##hatalom
##munikáció
##ürt
##üzemi
felmérése
megváltozik
XVII
KOM
Igény
##nőt
felhívni
tartományban
Kincs
Fodor
formájú
##400
##űrész
sztere
##ostorta
##jegyek
hordoz
töltel
beszáll
üzenetek
alapjául
##rendszerek
fosz
tragédi
2001
döntéshozatal
szakaszon
Open
Kodály
##KM
UT
alakítja
##özött
kívánatos
bajnokságban
közli
napjáig
##con
##patak
78
újszülött
Mir
választottam
##féleség
tank
veszed
##SM
Óvod
Kaposvár
##ődnek
szerződő
távozott
hozzáadott
##iköz
##7,
##mérnöki
Cas
őrzi
idősek
Mult
folytatódott
##olásával
körébe
##údi
14:
kedvet
bom
##chi
BME
személygép
polgárm
láthatók
Márpedig
Til
technikák
váló
jogállás
veheti
sütőben
beleg
eladás
gyermekét
beruházási
JÁNOS
periódus
feltételeiről
nén
##meleg
##szlovák
anyám
végtag
helyszínre
Gergő
##Ol
##gan
##ody
ADATAI
Információs
jelentőségét
##sáv
kerültem
legrövidebb
kritika
láttak
apát
1992-
fizeti
szakorvos
munkájában
##utód
hírekről
kérik
űrlap
##ST
##eu
kapcsolattartás
közeljövőben
##20.
Old
megtör
közösséget
megmutatni
pis
##etésre
ezren
hasznal
##ápoló
órai
Nic
azokon
Bécsben
menstru
Színházban
felelt
ÖNKORMÁNYZATA
##ALÓ
UNI
frank
beszállító
Hasznos
szeretjük
fegyelm
SZOCI
visszany
dokumentumfilm
##mozgás
Remek
óceán
emlékezetes
##jéhez
gesztus
hagyaték
megvannak
##állami
kellenek
##enzív
munkakép
Görögország
Épít
magyarázza
##iája
híg
Továbbra
Külső
tüzet
TE
Times
időjárási
megpróbál
##rém
részen
megfelelnek
##fém
##ugyan
kozmetikai
listáját
##angol
jutottam
tulajdonsága
BI
##eszteni
Eredmény
##üzlet
igényeket
##rendező
módosítására
INTÉZ
elkészül
##assal
adatát
KL
Szállás
##ítélet
cserép
konfliktusok
Bra
serp
útvonalon
kavar
sorozatának
##agen
tűnnek
Keresés
rendezvényt
##urop
fotókat
##RO
##so
mang
hajót
Elér
keretén
továbbjut
nehezebben
##odox
templomot
##jong
kidolgozás
rendelhető
applik
megkezdődött
Ahogyan
színészek
hangosan
##rsz
prim
hier
##álé
általánosan
##iparban
növend
visszaszor
##hato
ameddig
##ügynökség
##hamar
##várostól
Mün
hot
alkoholt
említettem
osztályban
Közbeszerzési
##részek
##látó
dipl
mél
alapjait
adj
hun
Óri
pisz
nyelvek
tartalmának
##olyai
tepsi
Sk
felvásár
feladatkör
Tél
##házán
Nobel
##HELY
odáig
viszik
jegyzett
##alkotás
ezekről
nyilvántartási
##abin
##ítója
##mivel
nézőpont
##özösség
borvidék
megtartani
Ül
lábát
díjakat
##organ
##lón
##norm
érzett
ld
##/2004.
HÁZ
széd
organ
##jas
Ath
karbantartás
##40-
képeken
ent
##öccs
gumiabron
##7/
##atást
diab
küldte
anyakönyv
tartalmas
olvasót
szúnyog
azonosított
Ni
fordulóban
Alapszabály
##gener
kézben
várták
erdők
bead
##osítást
##köteles
emlékmű
közvetít
kívánság
##exuális
szólal
##szkij
Maros
##eop
bizalommal
csir
elnyerte
maradandó
Hanem
ellenálló
elvek
csecsemő
##ÁNDOR
Modern
szegénység
javul
várva
elítél
példája
sétára
pótolni
##6,
##dhet
plaszt
##HO
idéző
ablakok
nagyságú
túlnyomó
##orid
##oritás
Uniós
búvár
##ify
##úszott
Matem
##]&
cselek
háttere
optimaliz
kongresszus
##exikói
##ANY
##öcs
áz
##nyak
adata
gyakoribb
Udv
pecsét
környéke
alvállalkoz
Adatkezelési
szavazattal
semleges
##pit
hirdeti
Csütörtök
##rand
##nyilvánítás
Délután
nagyméretű
ezekhez
##órát
vessz
Vagyon
Elek
legyél
írások
büszkeség
októberben
##tiszta
1993.
választhat
Benn
Megk
higién
cselekedet
fontosságú
mediterrán
versenytárs
##unka
ph
Nyrt
hobbi
Ult
##osodott
szétt
Képzési
világbajnoki
##űcs
##idat
XV
fan
méregtelen
Idegen
elszánt
Ju
##ortól
##nyezet
langy
fogyók
ellátva
##részlet
folyamatát
felfedezni
##füzet
köznevelési
szabályozása
MINISZT
könyvel
végz
##sztár
##engely
##tétel
Azonnal
AT
Gell
bög
koalíció
##esebbek
foglalkozunk
Sajnál
sötétség
különálló
hirdetett
##közeli
OKIR
emlegetett
ró
##fiók
Mai
mostanra
hatálybalép
előszeretettel
##ADÓ
Bejelent
állapotának
Egyen
##esztivált
##hetetlenek
kezdés
##hajtás
abroncs
nyaralás
legsikeresebb
##ÉTELI
Pas
##formák
igazat
##hettük
##hetővé
Norvég
alkotják
Mol
ésszerű
hatalmat
beszélgetések
kutyát
FELHÍVÁS
amb
maradéktalanul
Forma
nagyok
májusban
egyenleg
«
##akhoz
ADATLAP
értékének
megelőzése
##ításokat
dolgokra
iskolánk
##lár
Alp
elhelyezése
Olaszországban
Pintér
összefüggés
ima
##azonos
##NG
##esítést
Korlát
Ferrari
intézményekben
tünetei
kiterjedt
megtett
termékeny
##uborék
versenyben
##iknak
köztiszt
nyilvántartott
megem
üdülő
##ETEK
##anal
beszerzési
négyzetméteres
bajom
##ködött
akármilyen
diagnózis
kényelem
fegyelmi
barátaim
közleményében
Horvátország
##Kelet
igénylés
pálink
erdőben
létszáma
megőrizni
Euro
mindezek
##rasz
##Kore
0,5
alszik
Balatonfür
annyiban
##leh
képességét
jóváhagyott
Attil
személye
szakirodalom
##önként
Labdarúg
tennie
dac
elfér
##omentum
védeni
##bog
magá
meghód
##öldök
##jegyet
##4","
Dóra
jusson
bútorok
##aci
életünkben
Szállítási
változnak
parkolás
##gium
Leírás
##mas
részvét
cseng
jogász
Stand
készítmények
holtt
testületi
Szól
Fenntart
Pil
##betegségek
dolognak
170
kifejtette
Áfa
Legjobb
vitéz
Kazinc
befejezése
##kah
tartalmaznia
##uniz
pasi
vitat
mondjam
##sík
1995-
elosz
tabletta
Olvasóink
értékelni
aminosav
összekötő
Av
sikereket
projektet
##technika
eljutni
elkészíthető
##Pl
##occ
##örcs
nyilatkozata
ajk
kolb
írnak
vonalon
Ezáltal
fejlődésének
meglepően
Konz
##szentmiklós
##izom
oltár
belefér
Bat
jövője
Gyorsan
valah
Napok
elsők
##olo
##osítási
csapattal
függőleges
Siófok
##leny
Carl
barátai
##adag
##fogadás
konyhai
##napon
dolgozói
nék
kitűzött
videok
##ánta
taps
Kutatás
informatika
terjedt
kifejező
##eltünk
mérgező
másodlagos
világi
használhatja
##speci
hibáz
16:
válasza
##ítosz
vezetési
előadásokat
nézi
emberre
##ÜNK
webhely
javasolta
Könnyen
kihívások
Smart
levet
6,
hétfői
vígjáték
##isztoly
nevezi
egyedüli
tágabb
értelmezhető
Egyezmény
elküldése
naprakész
megszűnése
azokról
##KED
gaz
alapította
##ago
képi
partnereink
lekv
hivatkozott
polgármesteri
megadása
350
etet
biztonságosan
1.2
Buk
Unit
tisz
sportolók
novemberben
idegrendszer
##ando
elkezdődött
jelentkezési
##hard
fizikailag
Fazekas
##kep
többit
vegyi
áh
óvodás
déd
##okkant
##íthatják
hálószob
megfelelni
ru
Legfel
végrehajtási
##nov
pályaudvar
zsar
ÉRETTSÉGI
##játszó
##getni
oktatásban
##ermékek
unatkoz
##ural
##ószer
támogatásban
##attant
klip
formai
Abb
Legf
helyenként
gyermekei
bölcsesség
pen
kérdezni
##ületett
menj
##völgyi
elront
nemhogy
ügyintézés
megkérdezte
##főkapitányság
Tulajdonképpen
kuratórium
döntését
állatkert
Lou
fogni
Tehetség
tudjunk
##ozatlan
próbálni
tényt
##szinten
varázslatos
attitűd
##mith
miből
ülve
Tesco
előírásokat
gyanúsított
lépése
protest
felhasználásra
##unkból
gyúr
VIL
##eikkel
hiszek
##szin
Kérlek
Tatab
javító
ihlet
kockázata
értelmezni
fesztiválon
Tap
##szomb
Ac
hegyi
keress
bibliai
közlekedő
nagyra
##usta
1994-
alkotmányos
LEHET
egyikük
üzemben
Nyári
decemberében
Anton
jelez
jövőbeli
##éjük
háttérbe
karossz
Mennyire
fahéj
közvetítő
semmiképpen
húzni
légkondicion
##ster
##gazda
elégedve
mondanak
illó
Sec
beszédet
utan
Michel
megörök
kavics
tévedés
##kapitány
sérülések
dolgát
##szott
##ilkol
szövetkez
útmutatás
határérték
##rában
megvalósult
szereztek
megsértése
közélet
##lős
Kevés
felhúz
##;#
##ude
összehív
kiemelkedően
##érő
teljesség
kompatibilis
mogyor
indította
olcsón
külvilág
##irodalmi
##asztani
apostol
HÍR
csom
megfigyelhető
bekövetkező
kimaradt
##ÖV
állva
##add
hy
szegély
##9","
Toy
indik
elme
##SZÁM
masszív
kíváncsiság
országszerte
Gra
cukorral
Ipar
tulajdonságok
##élte
Anal
##ösz
csinálnak
bajt
##ünkből
évtizedekben
összegének
##unkról
##acute
kimarad
Hunyadi
fejedelem
Dunaúj
System
Társulás
munkacsoport
##vát
lakótelep
kilencvenes
mozz
végezzük
küsz
felszíni
borzasztó
##aur
fűtő
vizek
##hai
##időt
testét
kíváncsiak
átvételi
gépkocs
##kőzés
irodai
betegsége
IK
Tokaj
szertartás
halat
Jellemző
##dísz
szakmailag
##ikusabb
MINDEN
bűncselekmények
habár
##szervezés
feltérkép
##PIA
nevek
adatokhoz
búcsú
hazatér
##ényt
Irodalmi
Linux
kiterjedő
izmok
metaf
tégla
##pozíció
elküldük
túlmenően
kilogram
##ÉSZÍT
méltán
felszerelve
hin
##eben
##zást
Gyakorlat
feloszt
Wh
##EMBER
Bull
##enziós
##jainkat
##yán
feladatainak
változatban
mozgat
##tartalma
Fert
körülötte
73
##eljár
##éjének
megírt
mindnyáj
##TOR
tesztek
##ÁSZLÓ
hozhat
tiltott
Valaki
országba
tizenhat
##kál
Hirdet
oklevél
Alaptörvény
részeket
Viz
Intel
FIGYELEM
serd
járási
jelezni
sorak
meggyógy
Áb
##alép
működéséről
agyag
megjelenni
kiszolgálás
EGÉSZSÉG
##mosás
kolostor
misztikus
felülmúl
világhábor
##apos
##vadász
Belv
Távol
##györgy
félidőben
##veszter
##hova
elvét
biológia
##ópusi
másodszor
melyhez
büf
mát
bevitel
januárjában
kérnek
ünnepe
évtizedben
tapasztalatokat
##idó
erdőt
##hordozó
pontra
felhívta
megnövekedett
korom
kérték
rendezni
fokozottan
édesapja
költségét
országa
##iára
##szurd
környezete
##kád
füv
húzza
vezettek
ügyesen
alkalmazásának
Band
szfér
szennyezett
promó
nyolcvanas
dolgunk
{
##ezár
Bát
osztályok
főző
egyrészről
##ossa
működtetése
állattart
15:
fir
széria
##ámogatás
##OLÓ
som
##Tube
Jac
tölgy
tévéz
##almakat
Célunk
ítélte
élvezni
##üss
##gyök
légzés
mindenekelőtt
báj
évfordulóján
segítsen
leszög
híreket
Esély
Kiegész
bevásárlók
Fid
Su
fehérj
suli
szíves
jótállási
##lub
SZTE
nézz
ügyfeleink
##könyve
lépésre
adóked
függőség
13:
Mára
Váci
Száll
vágyó
horror
##amra
Liv
rendeztek
munkavállalói
##zsír
box
##ükből
összegben
Nyolc
Puskás
hangulata
nevezhető
kötelessége
végképp
szintjét
##áné
foglaló
barátnőm
társasház
képlet
gyógyszerészét
##oe
technikával
Dátum
##ikip
sziszt
dokumentumot
portugál
Szombaton
problémám
legkevesebb
szág
EGYES
időről
hangzás
##iták
##harmada
##1-4
##orsó
SZABÁLYZATA
többségi
rendőri
közoktatási
padl
##ságával
könyves
szövege
##IKUS
játszódik
utazott
##támogatás
elérhetőség
Megúj
##oszlása
megillető
Integr
csodát
##imat
sűrűn
Egyáltalán
legérdek
##ülések
spekt
szoftverek
konzultáció
sört
eurós
Nógrád
eljárással
határok
##akról
fonal
fegyverek
##ázst
üdítő
HELYZET
komponens
##éséig
kiépítése
##adar
töltöttem
##OZÁS
##ukról
kontextus
##gyakorlat
Választási
ser
illetékességi
üzemeltetési
Der
sej
fából
rejtély
app
##hetetlenné
újrak
##The
##atba
##onnal
számítva
megnehez
bárány
törekvés
hordozható
interjúban
billentyűzet
jelszó
1960-
##meny
##lemény
kocsm
ruhák
adventi
otthagy
tekercs
köszöntötte
Sportegyesület
súlyosabb
Ka
##akból
##aradás
##LAM
biztonságát
stílust
harap
februárban
segítségére
##egi
képét
##ításhoz
kamara
##arin
miénk
##anulmány
##vasárnap
##elék
alm
##umentum
korig
gondolod
oldalas
rólam
pályázaton
##elemen
korona
##áciai
##9-4
Andr
##idth
(!)
##ction
infláció
széleskörű
édesség
kombináció
Gyönyör
darabja
áthal
Kellem
tőled
mennyei
##etések
##ítettük
kiküszöb
##ELI
##nők
32.
főzni
Komoly
linkre
tagjaként
változatát
##kultúra
adatfeldolgozó
##uum
példányban
##oltan
elít
levág
Kerék
##DET
KFT
haja
Nokia
támadt
hiszik
mondanám
##otípus
vonja
kormányhivatal
##ikán
előnyei
határozatok
183
erejű
Angyal
származnak
Hódmezővásár
##fur
##2","
eme
jol
##segítő
Gyűjt
##tisztító
hűséges
ötletek
ft
Személyi
,-
86
ori
találkozón
beszámolót
kapcsolódnak
OS
Kedd
COM
Legalábbis
##napot
kénytelenek
##ugoszláv
alakulás
##ager
inj
BE
ség
sopron
Nyílt
##szellem
Galéria
##essze
##esc
kijön
##üg
álmai
Humán
címk
Bevezető
születése
helyiek
diplomát
##14.
önfel
##szoci
szakadt
##ennégy
##pi
69
támadások
értjük
évekkel
galamb
javaslom
##ravúr
médiában
##eker
Habár
##resszív
##ilárd
##18.
##eder
lob
özvegy
hozzájárulnak
##front
forog
Orvosi
teremben
szolgáltatásai
##nbsp
Községi
javult
főtt
keretei
##ski
képre
##venció
megvit
teljesítését
mindazon
diad
magánszemélyek
próbáljuk
előadók
mozdony
kedvence
ALK
##igi
daganatos
hívő
szobát
koromban
helyezése
##kötő
Design
elszen
##könyvtár
szeptemberében
##árművek
megíg
tanácsi
srácok
feldob
döntetlen
megállt
puff
szid
##ódhat
amolyan
hozzájárulhat
felemelked
##ozo
megáld
jövőbeni
szervezési
2000.
ingad
dózis
tagozatos
##persze
örömére
energiával
##ólyag
rassz
TANUL
##ozzanak
megnyugtató
##7","
##szép
mesélte
##ÍTÁSA
anyagokkal
##veszteség
LÁSZLÓ
szeretete
Másik
kódot
települést
palacs
kezelések
beállításokat
cégnél
Szarvas
kompromisszum
Tv
szalad
juttatások
##INK
regénye
bejelentkezés
kitöltött
nemigen
segítünk
önmaga
Használt
##alj
##zésével
tudomást
betartása
márciusban
##álódott
kötél
elhelyezés
találkozót
viták
számott
tünt
szerk
cukrász
##MŰ
áraján
vezetőedző
elégedetlen
##pént
##ozatok
termékeink
meghatározottak
munkánk
##sug
gyűlt
bejött
magamban
ízületi
bemutatta
nézte
Rózs
##orzs
##elo
diéta
redő
##VÉDELMI
szavai
kiállító
##ezetten
kíséri
##német
2020
becsül
rendhagyó
##SP
JAV
Lásd
audit
imádom
belépés
##onó
##ened
figura
ismerősöm
##kapcsolat
##ázása
hasmen
veszít
Állandó
ellátását
elkövetkező
Pop
csúnya
kereset
jegyezte
tekintik
korrekció
izgat
bocsátott
gyógyszertár
(1.
##ináris
segit
napokat
javaslata
##ukott
##ültség
kivonat
##teszt
##számmal
("
##OGAT
##uszok
##????
kun
Fájd
fejlesztett
antiszem
##elát
parton
emeleti
##bék
normatív
járadék
indián
függöny
##ezres
Róma
témájú
éltem
hint
készítünk
felismerése
arculat
KULT
számíthatunk
##itani
ezentúl
írtunk
alkotja
büszkén
##CIA
##ónus
Jókai
mosogató
##15.
Nóra
Megjelent
éjszakát
Nemzetiségi
tételek
visszaemlék
(8
semmire
##szenz
1950-
1991-
Vezetői
teljesítéséhez
Önöket
tettünk
glutén
felállított
medve
##ellátó
rendelni
gyal
nyilvánosan
##ajnos
FM
átvált
##artalmú
YouTube
bőséges
sajnálom
##pedagógiai
##mg
##ábel
tyúk
pénztárc
értik
egesz
turmix
eltekintve
1993-
parkolási
megválasztott
Paks
##ásáért
Felügyelet
fodr
zakl
bevételt
##ukba
Kin
ismertető
szülőknek
ahány
MTV
érdekképvis
hallható
bevezetett
Veg
érve
ablakon
tanulság
alakított
homlokzat
chip
Ram
heves
statisztikák
spam
##eletes
gondolatait
##tanár
átvenni
élőv
összetétele
##ÍRÁS
felajánlott
##;"&
éveken
##Elő
##arra
##óhoz
sértett
építették
Lem
##......
megráz
témával
Felek
bejön
megmutatta
problémával
HELYI
Szok
határos
##AGÓG
Miskolcon
fenyegető
##ombin
cégnek
tudnánk
##portál
értelmi
Ára
mentor
##ERM
étterm
##liszt
társa
problémákkal
mézes
##szállító
RENDSZER
robbanás
tanácsokat
##ájékoztatóján
ÜZ
hetvenes
leford
Zrí
79
ÉP
Eny
vereséget
hvg
##egetni
alkalmazásában
##asági
##bejelent
áraszt
közölni
##lop
szeminárium
hatékonyságát
Kíváncsi
##disz
fenntarthatóság
##vek
Bag
ugyanígy
Japánban
Pay
terhelő
weblap
megijed
bérlő
##vész
Dózsa
vaníl
84
sal
síp
eltűnik
látogatott
2)
megannyi
megtudni
Rek
fax
Bt
erőfeszítés
hajtás
89
kombinált
Pir
belegond
##likus
##áiban
5-10
micsoda
Tavasz
prófét
kezelőorvosát
rekonstrukció
Win
becsap
pajzsmirigy
Roy
##vasztás
vezetőjének
menjünk
##ésem
##korong
szállítmány
önrendelkezési
Ors
##iteli
hangulatban
beállítani
helyzetekben
űz
##itim
##row
sugárzás
érintkez
nemzetköz
kompetenciák
##PC
##ápolás
minták
félret
bevándorlás
##erjedt
hatnak
eredményesen
pénze
térfog
Instagram
##xel
idô
##felad
bugy
##enciája
##300
megkezdett
Erdő
törvényhoz
NAS
Ének
##õd
gondolsz
Kód
##eztette
országában
plébános
vélt
kormánynak
Master
##RÁS
marha
Street
PED
későn
szabályos
könyvvizsgáló
valószín
élhet
cégünk
valamire
háztartásban
blu
szendvics
kapjuk
alkotni
VÁL
##now
ismertek
fejlődést
távolabb
##ámpír
halálát
műsorában
##ólap
elmondása
Bas
adóalany
addigra
##ütköz
tessék
sóval
##fiz
Lis
rendőrségi
termál
generációk
DJ
##iller
##stílus
tudását
vágyak
##web
VÁLLAL
akadnak
darabokat
##fürd
##esítette
##felelős
##számítás
farsang
Együttmű
##mé
Fax
##irc
Kedvenc
##itch
##ÉNZ
tűnhet
kényeztet
megtalálhatók
átvette
##esküv
díszt
középen
migráció
Arch
Beat
százalékban
Júlia
ALAPÍTÓ
jótékonysági
Uj
##16-
kitartó
igyekeztek
palett
sa
Részt
elkülönített
olvasott
ot
félek
foglalta
nyújthat
Anyag
idézte
tárgyat
##anti
végeztem
feszültséget
vizsgáz
megegyező
##avállal
##rikus
érdemel
##avezet
belügyminiszter
hozzáadjuk
##ikába
bonyolultabb
életmű
szempontokat
Édesany
##itások
hangon
országnak
kötődik
−
##fogás
kikötő
##ession
körök
Rendezvény
fiataloknak
##ıdés
20%-
tekintjük
hirdetési
kikapcsolód
tartalmakat
higgy
##falvi
mil
hoztam
keresse
diszkrimin
Templom
##modernebb
otthonról
vesztette
##+1
##ülők
##tatok
ráz
mesélt
nát
##odon
segítése
beszédében
okozni
Területi
vagyontárgy
messzire
Pok
zavarja
##egyek
##egedűs
egyiket
eszközei
alapt
balatoni
Anita
##essy
BAL
cseréje
##Szatmár
##bérlet
##ötty
##ükhöz
Palot
##ogva
kibocsátott
##%),
##előny
##lagy
égi
címére
kiindulva
##győz
Habostorta
írj
RENDELETE
kaphatnak
helyiségek
Képvisel
India
Saint
célpont
közleményben
##szemüveg
döntenek
reál
##ográfus
nemsokára
##falva
ismertté
gondolták
Ca
Ezekben
színeket
##ûn
ijed
kitalál
kiválasztani
##vest
Zenekar
újraind
##NOK
##Bereg
igazolást
##áltatók
centiméter
alakít
##tartalom
##szabályzat
országosan
nyoma
lelkip
##oto
96
##önkormányz
kezdik
utazik
50.
Lux
masz
##gól
##átora
meger
turné
Levente
válaszadók
##domb
felhők
áprilisban
##ikar
Táp
gyarm
szüntet
jubileumi
megvalósítására
##vényt
PL
válaszolta
örültem
Domb
szellőz
kalkul
Kutatási
utast
##szerencs
##ikális
termékre
kerüljenek
ELŐTERJESZTÉS
Cop
##álhat
1990
közölték
tömb
akadályozza
Rita
szlovén
kivitelező
##ree
kiszabad
meghaladta
KÖZTÁRSASÁG
##ajz
Business
##zsi
##ison
sir
Tudj
##tehát
74
##leírás
magyarázatot
elvezet
kihasználva
Ball
tárgyalt
végezhető
átdolg
formakód
szurkolók
igazgatásról
klímavált
##szerelő
intézkedést
egyházak
versenyeken
##eközben
lelepl
beszélő
##osodás
Suz
##/2018
rendszerű
panaszt
Különböző
futárszolgálat
Of
Trans
szobr
bolgár
##trop
hagyták
##alló
közpénz
vezetékes
Költség
mindvégig
+36
##2012-
##szintet
##olódik
lettünk
tox
gyémánt
emelkedő
találkoznak
##ii
számlák
közleménye
feltehetően
forgalmat
##ONTOS
elnökségi
végrehajtani
Hossz
életébe
kicserél
érdeklődését
##ökkenő
##viselés
##elszám
Összeg
vizsgát
megbeszélés
##konc
forintba
Szervező
reméljük
vízszintes
feledkez
novemberében
##DE
den
társkereső
legmodernebb
érvényesítése
amelyekhez
Af
##iknek
##ottabb
terjeszked
ellátásokról
##emről
Pályázat
##kong
Horthy
Zsófia
##asban
láthatunk
íme
mérnöki
97
keksz
határidőn
alkotnak
percen
jutunk
beiratkoz
##kodnak
Lakás
tev
rendezi
##területen
látnivaló
Start
szavait
sodr
fájlok
##ipl
sakk
##izmussal
KÖZÖS
jellemezte
foglaltakat
##apám
tested
funkciókkal
##érve
BBC
##modul
permet
125
Sun
mondatot
övé
Biztosan
alakítani
##-3.
##kilenc
alkotói
vigasztal
fejlesztők
megtilt
##BM
##marty
vizsgáló
Szük
nai
##szerviz
valóságot
számba
HASZNÁL
##szívó
felsőbb
álláspontja
Cam
póz
szőke
eközben
felhatalmazás
1200
##emokrata
helyeket
##forgó
készíti
tanítani
bejelentkez
határozatlan
reklam
##ítéséről
nyomozó
fennmaradó
átalakítás
##bus
##ezhetjük
##13.
##ióz
javaslatokat
iskolákban
havas
fag
##íthetjük
munkások
##ésből
##oke
haladni
hatállyal
##szoros
Zrínyi
TÁRS
Labdarúgó
##asak
vételével
##tét
##erték
vélte
##eled
bizonytalanság
##estem
Rózsa
Will
##ÁBB
krízis
Moszkva
Becs
vélem
tárgyát
##usztikus
lelkesen
##tar
out
védőolt
Fa
Sci
költői
megadja
Nyilatkoz
ötleteket
jogosítvány
leghatékonyabb
##jártó
Bulg
alkalmaznak
##.]
##pp
elhoz
KÖZSÉG
Valamennyi
##eking
Szuper
TÖRTÉN
dilem
akvárium
érdemben
utalás
zúz
##hagyma
Hangsúly
Tet
váltás
Magazin
marh
Kinek
vitát
előkelő
találat
belvárosi
##rendszerben
##itis
##írni
tagjának
hem
##oty
##/1-
##korszak
##DŐ
Bakony
testvérek
##LI
Alapvető
Kati
szakaszban
augusztusban
megjegyezni
JEGYZŐ
tisztelt
Autó
erek
elkezdte
kormánypárt
ügyvédi
Andrássy
óránként
káosz
Kataszt
tárolni
segítségre
megvet
formátumban
##birtok
filozófia
munkaid
szakképzési
mélyén
ítélték
##ihen
mac
kérhet
koszor
##eszék
helyszínt
csop
közmű
csakúgy
natúr
##okauszt
Megint
Istentől
##arany
Befektetési
konszolid
##nincs
##vani
##rax
kattintással
XC
##árdi
kódja
asszisztens
##lőt
néhányan
éreztük
##veg
illatos
cim
Sand
Music
törvényjavaslat
sc
Lássuk
megfordult
Megjelen
küldés
kiegészítve
ígért
jutalék
problémás
legérdekesebb
szerepeltek
Kedvezmény
kők
##éttel
jogutód
hazafelé
veszprém
##túl
##Abaúj
halk
##obi
hűség
Bajnokok
bevont
érzet
figyelj
onn
elemeit
bizalmat
lakberend
remélhetőleg
jutottunk
##iment
nyersanyag
fenntartott
Gyen
felbor
visszahív
prédik
bravúr
##60-
Irán
##AND
ágazati
termékkel
gyermekjóléti
próbálnak
kérdésére
##õje
##iro
##vagyis
brüssz
gál
szit
jelöltek
Békéscsaba
Női
##ezőt
##következ
székhelyű
Megye
gravit
esnek
IC
##eed
unió
##ilincs
erdek
##lor
##erson
Szav
gyanak
csokoládé
Kup
##isszük
jelet
Hamilton
##teráp
száguld
##foglalás
adókötelezett
lecsap
brutális
##Sok
Felhasználói
##udat
nyomor
növekedését
megkönnyíti
MH
Móra
liturg
leányvállal
mők
alkalmazást
világbajnokság
##keltő
Tanácsa
GM
fogyasztani
Tab
##17.
##napok
##koreai
##jogosult
szertart
bemutatására
veszélyezteti
##ésnél
Bach
##usza
##hatású
##eném
értük
Dunántúl
Jim
főzzük
Rev
egyformán
##gyújt
tehetetlen
elküldés
bu
csodál
fejed
fertőzött
##Em
##izottság
##ÉRIUM
##látás
átmenetileg
##ulj
(7
részből
emlékszik
ellenőrzést
igénybevétele
Körül
összesített
09.
homály
Romániában
rép
1998
helyreáll
##szolgáltatást
##Bal
kezelik
82
gondolnak
kísérletet
felkel
Kelemen
##UB
##abol
##rahám
említette
állítottak
##takarék
gyümölcsös
kialakul
fenntartani
##ázatot
##ouch
##illetve
koncentráció
tapasztalatait
##1:
Baz
##osabbá
Gulyás
rosszindulatú
Dub
##álmod
Előadás
##háló
##olas
játszótér
SZDSZ
##zésében
Azoknak
Csík
mondok
Ly
kezdetek
##cht
békét
elmos
impul
szövőd
lényegét
mondhatni
félidő
University
##tetek
Vállalkozás
honvédelmi
##onális
bőröm
sikerek
##ásoknál
melyeknek
valóra
fı
##UX
várod
gabona
(+
##omot
árán
privat
##Ch
munkákat
INFORMÁCIÓK
##ebook
linket
állása
társaik
Réka
kegyelem
prés
kívánják
##özön
##ublik
##évíz
##látogatás
##TESTÜLETÉNEK
##lésével
##pál
##HATÓ
Kés
dog
kizáró
kifolyólag
matric
Elv
rendezése
nos
INTÉZMÉNY
építőipari
étteremben
##házas
irányzat
##Be
Jö
##utsch
megker
kötve
égő
##ültetés
betilt
leggyorsabb
jókedv
jogosulatlan
jutalom
felépített
##léti
##ellátási
mikrofon
népe
előáll
végezt
fillér
csökkenő
##ÁRI
TR
értékeli
##felügyeleti
kézhezvétel
aer
Mónika
##özös
Képzel
gyökér
tartogat
bővebb
kísérletek
perspektív
Fok
##árosi
##ügynök
Azután
ÉVFOLYAM
közreműködő
csönd
##ezetlen
megnyer
Hó
anyuka
feltárása
felmeleged
meglepetést
tomp
anyagcser
##áter
szigeten
##1","
kerülne
Ross
##hassunk
oktatást
keresztények
##orth
érzékelt
##utan
##many
emlékeztetett
land
##atkozás
##ukkant
##beköt
fenntartva
##elly
anyák
gyászmis
közepe
árny
##ozata
búcsút
sérelm
Független
##álódik
kihird
indulni
kezeljük
Tanácsadó
##aitól
virágot
vérkering
értelemszerűen
asztr
Aszt
##projekt
rendelést
forgalmazott
15-20
Háza
bogy
##ovszky
jobbak
megvenni
tapasztalatot
Aug
pályam
##asszikus
61
##csik
forrásokat
Idők
válaszd
áldozata
##halmaz
Eközben
##uer
többre
részévé
##arton
áldozatot
szándékkal
grán
##ohan
gondolkodásmód
koszorú
megvalósítását
eljátsz
##programok
kattints
kellemesen
##ách
gyengéd
##éltük
álltam
közgazdász
vállalunk
##ehogy
észrevét
##rey
##lóra
##dos
alapból
##Ma
Voltak
##képesítés
##kozik
##ádium
Motor
emlékére
2.)
Team
##boldog
végrehajtott
##gépek
##ozásának
belevág
elefánt
konzor
Belgium
##ckó
visszhang
munkálat
értelmiségi
Magd
Dunak
hallgatás
biztosítjuk
##DD
35.
##péter
##ázást
BAR
Üdvözlettel
időbeli
Múzeumban
nyugdíjba
##Mert
évnél
Galaxy
Szlovákia
Salgótarján
##unizmus
##lött
ÜGY
##áé
ÉVI
##kir
mul
Konc
hosszas
Daniel
méltány
elvesztette
kifogástalan
##win
##ülésének
osztalék
verziója
felvételek
SZOCIÁLIS
ártalmatlan
Kosz
gárda
##ty
Múlt
fellend
##böl
##ikra
megállapítására
17:
##tudat
HATÁROZ
1996.
főpolgármester
csalódás
előirányzat
##iplom
mezők
terek
##Zemplén
fűződik
boszorkány
kedvezmények
ábrán
Szim
Vasas
##ottó
mál
kezem
LG
hitte
bejegyzést
##ágai
kivég
Bluetooth
felületén
védelmében
##arta
##megye
központtól
##fold
könyvét
##php
her
##temető
##zása
##afa
olcsóbban
IGAZ
Szűcs
kijut
formái
órákat
művészett
népszavazás
pör
##uláris
87
Cast
októberében
tárgyú
évszázadok
Ném
házirend
##dog
Nektek
fogta
Jézust
HIVATALOS
moh
vegyület
Drága
élőhely
termékei
fav
##illan
közelébe
##Bár
##őképesség
szakadék
##ásért
elképesztően
kápoln
##aps
##ációnak
sztrájk
##/4
dial
##mentő
friz
gyanúja
filozófiai
bezárt
megtartása
maszk
##eződött
Atom
porc
TERÜLET
hajlamosak
teljesítette
csatolni
Örülök
nonprofit
üzemel
##TOS
töltés
viselni
##színpad
megmutatkoz
##pol
Roz
##gl
mennyiségi
##ázist
Volk
bújt
##övezet
dalokat
szülin
##tartalmú
##gyû
modellje
##ebr
##angó
Ily
hagymát
madar
hozzárend
##telenné
leghosszabb
##ilyet
evolúció
##/2005.
##Script
berlini
vágó
##küldő
juthat
előmozd
kitett
cigarett
Berg
elkerülhetetlen
SZENT
öregségi
Fort
munkahelyen
##ERT
##hiba
##avilág
Habsburg
Szeretnénk
##iváló
pulzus
jeges
Épület
jelentkezz
vételi
rendjét
kötetben
Előterjesztés
##prov
##iler
##központi
fajtája
osztott
rokkant
beszélgetést
olimpia
szedett
Akt
gyakorlata
statisztika
##rangú
jelenteni
fat
megfoszt
##SL
feltűnő
##esítve
##fegyver
felüli
jaj
##éjében
brüsszeli
németországi
félelmetes
##ultunk
beszéltem
odafigyelni
szolgáltatásait
##érkezett
irodában
ször
pénzforgalmi
##ívó
durv
feldolgozni
városokban
jelentették
évhez
szántó
Miss
Ukrajna
reproduk
sétál
Merkel
##iba
##roc
narr
reperto
funkciókat
csinálok
kérdeztem
terveket
Rákos
határán
##túra
##távol
jelenlétében
##album
##ápoly
állatot
go
pozitívan
átalakítása
adóbev
joghurt
alkalomra
gyerekkel
##órák
meghagy
rendeznek
##nappal
kirek
##-200
időbe
BETEG
Oktatás
kormányzó
büszkélked
Kasz
lények
##Per
Bethlen
fogamzás
nemzetek
jogalapja
rendszeren
##gi
##ual
##ohn
83
miv
vezérlés
##18-
észlel
kezdetektől
##növények
##igris
vajat
tárolja
szerintük
Tant
dicső
##lete
gúny
ezúton
egészséget
lépésben
##legalább
kapcsolati
##5,
##munkát
##uval
##ungar
##nár
##jövő
ventil
##massz
##lásával
apróra
kérdezze
nyugalomra
hazaiak
utóbbit
szándéka
##Jó
##ségbe
kiak
Marketing
Kifej
bánat
##befektet
##Te
##ejáték
SZAKKÉP
megoldására
diszn
csatornák
Lehetséges
##rıl
panorám
##tájékoztatót
egyenlőtlen
emlékeztető
cége
Honnan
krémet
Bol
fölösleges
terr
FELAD
Könnyű
Tudjuk
térségi
sötétben
##halmi
SÁNDOR
40.
POLG
Hazai
kijelenti
RENDELKEZÉS
jellegét
értékelte
következõ
##ıen
##észi
megjegyezte
csatornán
elolvasni
##ajár
megalk
végezték
Von
figyelhető
hívás
várat
Kezdetben
befizetett
##rier
Wars
beszéltek
házba
franciák
kívánnak
kiindulópont
fizetnek
körülményeket
Köszönet
kíséretében
verziót
közfoglalkoz
##csatlak
##stratég
##vizsgál
##evi
Szövetségének
részese
lelket
tartózkodó
##fenntartó
szerencsém
360
adminisztratív
feltüntetni
követelményeket
##GYŰ
tak
keretet
otthona
##levelek
##ology
EMBER
szuver
ismerteti
újságírók
arom
kifizetni
kifinomult
##ertől
járvány
Vörösmarty
papíron
teljesül
Hamvasztás
állapotában
##kup
liber
elsőbb
hatvanas
oldaláról
Lud
szürk
##HB
##képtelen
elmélked
Mindannyi
ÉRTÉK
##értünk
Magyarországról
Jelentős
másképpen
up
##ovic
menedzser
##dim
##has
munkájukat
racionális
rendszernek
elektronikai
##hessünk
telepítése
változatot
rektor
##PL
ülni
##inci
jelzik
##arka
drót
Királyi
elnevezése
hozható
indulunk
területein
##PM
kereskedők
##onatúj
##ültünk
igényelnek
minap
késedelem
zuhan
kiszűr
tagország
italok
kialakításában
##show
##ESÍTÉS
csökkentett
gondolkodik
##onna
műszak
csí
kontén
likvid
értékeit
semmis
valószínűs
árai
##áramlás
##anty
háborút
Ren
legelt
téglal
mellettem
Cre
odafigyel
##autók
borot
fölt
Rudolf
érdekek
Francis
elidegen
feltett
mérések
Gellért
##Úgy
##ásánál
töltik
egyenlőség
mondanom
##ettebb
újságírói
fölötti
##ammal
évekre
küldi
önnek
##cskán
életévét
ugyanannyi
##táj
Hav
zsidóság
átlátszó
mp
Viv
##gattam
piacot
KÉPZÉSI
egyenletesen
munkavédelmi
járd
tagad
ülése
##16.
##ázzuk
locsol
mozgós
Közgyűlése
azokhoz
rendelkezéseket
BR
licit
##36-
##ésén
éhes
##ozatot
Kistér
abszurd
##...,
Sup
##illiárd
átadja
bibli
##uter
Többször
sláger
legrégebbi
##ereje
élére
szórakoztat
engedélye
##vizet
##egyver
hacsak
savanyú
felvállal
kategóriájú
##ajáték
##álisabb
amióta
kiszor
##formáló
részük
##műhely
animációs
tetov
tervezte
gondos
tönkret
mellkas
szabadban
Moszkv
mam
szíriai
##nket
30.)
AJÁNLAT
képviseletében
stílusa
töltenek
##tom
fáradtság
##arth
##ulunk
mesék
Kont
##alomra
jogellenes
##apcsolt
Schw
háromnegyed
gárd
##ségében
bejelentése
zavarok
eszterg
##szárny
paraméterek
petr
műtárgy
Liga
parkban
jelentkezők
istentisztelet
MAR
Veron
##kell
farm
megyeszék
##öreged
ERED
elkészítéséhez
Alapvetően
1999
májusában
szivattyú
##leves
elle
##FC
##égett
Igazán
megtakarítás
Bro
vonni
##ujj
dobog
Remény
kvant
pászt
08.
mondhatom
figyelmeztetés
Iskolai
Koszt
jelezze
milliót
megemlékezés
mítosz
incidens
##cookie
Valamint
Társulat
díjt
meséli
startup
házastárs
kézbesítés
##25_
csalás
túlzottan
##Van
XP
Valahogy
kerettan
megváltoztatni
##NAP
##bál
ugrott
##bánya
CXII
##orttal
##zók
Richárd
EMMI
##8","
##orlás
alkalmazási
honlapja
másolata
##eme
földr
##szükség
összed
Időpont
szilikon
kajak
Hírlevél
Standard
visszaküld
meghúz
Kard
##sorozatot
anyaggal
indítani
jelentkezését
benső
ruhákat
hasonlók
anyagilag
##zenekar
tragédia
##ollyal
pezsg
tünete
elhagyta
okozhatnak
##.30
##omos
##kölcsön
őrület
##ázd
92
megértése
kényelmet
referenci
##opó
##umer
lézer
reprezentatív
##ödő
tudatosság
bejelentést
##ush
munkahelyek
szocializmus
mérni
Assz
lekérd
próbálták
##javító
burkolat
ábrázoló
vásárlása
kérdéssel
útmutatót
odak
Képes
tegyék
énekel
támadást
nyitottak
tizedik
##odását
VÉG
benyújtásának
##lie
negyedévben
os
készítették
##zőkönyv
##ety
ugyanilyen
hatott
tablet
munkálkod
linken
##halm
Por
megállapítja
Csilla
előidéz
kiadni
ritkábban
##ássa
##trágy
biztonsága
##ations
tum
Unióban
üzletág
csomagok
##ognitív
##tábla
Braz
teend
Ű
##adíj
Támogat
megkérdezettek
fertőző
struktúra
gasztronómiai
tö
FEJ
akiről
letartóztatás
##rendi
Tájékoztatjuk
megkerül
nyirok
##aban
##ugrott
igényelhető
mosógép
közepére
##áikat
2019
megtanulni
##andináv
kérdését
##hisz
##ound
növendék
tempó
istenek
Ábrahám
Fáb
megvásárolt
##15_
##önyve
analit
kémia
univerzum
szervezetünk
weboldalt
feltárt
alapterülete
##annia
##artás
##ellenőrzés
##művészek
##ikli
lehetek
bosszant
vizsgálta
##etáris
##||
érvel
Hitler
Nyugati
kedvelő
Arc
##0001
Megfelelő
##gondozó
élővilág
nyugtalan
Herm
Serv
beszámolt
LCD
fekt
sutt
##ítólag
balett
Önként
csípő
határozta
kezdődően
Pozsony
sétány
Szívesen
##díját
kértek
régiók
letisztult
értesíteni
##ld
##)!
pelen
büntetést
engedelmes
##Ber
városnéz
márpedig
soproni
##csökkenés
##odtam
nyitás
példakép
amerikaiak
megvásárolni
tárc
felügyelete
szakemberei
döntési
fővel
##omet
érrendszeri
termelt
díszített
szakosztály
##cin
##ilóg
##alkotó
űrhaj
##pótló
BESZÁM
levezet
lelő
elektr
licenc
##ésekről
Tímea
Plus
testünk
előnyeit
megismétel
Henrik
kijött
Szeretne
elsziget
megszerezni
GL
hulladékok
##évre
kulon
##dunántúli
megközelít
##lód
##stb
##right
emléke
dat
kaput
telken
levált
##")
cink
példák
##icsk
##éleg
Gáz
SZERVEZETI
betegségben
Ügynökség
##nyák
utakat
blogot
##lar
##KDNP
##onyos
##:30-
Ezeken
őrölt
misszió
kérdéseinkre
Halász
##helyes
Show
Mások
oroszlán
népszerűbb
helyzetének
ajánlja
##ÚJ
Csák
hanyag
utalvány
Rév
Előtte
kihasznált
felm
peng
Közlöny
kifizetett
szervezője
háta
remeg
gondolatot
ismertetett
grafikai
##ádió
Def
kesz
tervezik
átve
láthatja
konzol
megteszi
Evangélikus
##oad
PEDAGÓG
##allas
tanítása
Stúdió
elismerte
Használati
##ányai
Érvényes
megnő
szobával
##ADER
##árát
##atására
menete
rokonság
büszkék
csomópont
##LEG
típusát
##.3.
18:
Tol
##arancs
baromi
viszonya
##assanak
bű
évtől
prioritás
MB
atlét
művet
köznevelésről
boltok
mechanikai
örülni
szüleik
KÖZPONT
elz
Tünde
érthetetlen
SM
##tetsz
kegyelm
hívnak
kiemelni
##űség
megkóst
belvárostól
mentesül
tetszőleges
nas
priorit
terhelt
szorgalmaz
##Le
BEL
##esítik
##blok
##éltető
eddiginél
elfogyott
munkafolyam
szí
##gatók
##intézked
hatalma
gyártása
edzők
szerzemény
költséghatékony
mondatok
rendszereket
##ekvés
7,
népdal
eldob
##to
palota
alapanyagok
megtalálhatóak
##ámadás
üzletben
Asz
##lehető
##ikára
selyem
amelyeken
Tipp
Tölt
ecset
néptánc
szerelő
##czy
##péld
##egléd
háztartások
##etikus
##gondozás
elhanyagolható
450
bon
##tömeg
##IRDET
##vörös
érdeklődést
##fájd
Igyek
##játékos
elavult
##ATOS
Rena
szőlőt
jellemzője
küzdeni
használok
használjon
tulajdonban
##apa
Zárt
látó
kézbe
segg
Mózes
##képe
szimb
##könyvet
igazad
sokrét
##barna
géppel
elárulta
szerkezetbe
Big
Prot
fiát
beler
együttműködő
MR
univerzális
úri
##/2003.
Kornél
##ytics
preszt
##lások
ügye
##ozhatja
kapcsolatát
megpróbálja
villamosenergia
##aságot
homokos
Főiskol
fordító
mögötti
államnak
feltűnt
Napja
bén
lelkét
##álással
Pre
##CP
ezres
esélyes
##csoportos
felállítás
feladatát
megszavaz
##óvár
Tiszta
kisváros
Honvédség
##cse
##ukból
Ebbe
estére
Reggeli
rejtélyes
IDŐ
munkam
##itott
kulturált
oktatók
Bemut
Kamar
erősíteni
##HEZ
Élő
##bőv
##isch
JEGYZÉK
Éves
Eleinte
bevétele
diplomáciai
Pic
##SZK
súr
befelé
látogatható
infrastruktúr
fejemben
felelősségre
karbantartási
találkoztak
egysége
elégedettek
##ahitel
##ye
VON
##ármint
Munkás
autóban
idézet
meghallgat
olvasta
##reform
állapotba
laboratóriumi
Pinc
megbízást
##írus
váltotta
kilencedik
előkészítés
##ÍJ
##owe
##SZTÁLY
edzett
pályázók
beleh
Gyárt
magasra
##Követelmény
##.3
##magazin
kaptuk
veszprémi
Kond
mexikói
Ajánlott
belsejében
együttlét
##szerűség
##-4.
azonosítható
Ho
rejtőz
##Na
##atej
játékosa
megnézzük
Elmondta
##válogatott
indoklás
bepillant
Ci
módjára
cikkeket
településeken
főorvos
##ikáját
##ődni
##végén
Termékazonosító
Oda
farmer
lezajlott
##ÁRÓL
##kastély
időtartamra
##kul
kitéve
jövőkép
[...]
